{
  "version": "1.0",
  "truncation": null,
  "padding": null,
  "added_tokens": [
    {
      "id": 0,
      "content": "<pad>",
      "single_word": false,
      "lstrip": false,
      "rstrip": false,
      "normalized": false,
      "special": true
    },
    {
      "id": 1,
      "content": "<unk>",
      "single_word": false,
      "lstrip": false,
      "rstrip": false,
      "normalized": false,
      "special": true
    }
  ],
  "normalizer": {
    "type": "Sequence",
    "normalizers": [
      {
        "type": "NFD"
      },
      {
        "type": "Lowercase"
      },
      {
        "type": "StripAccents"
      }
    ]
  },
  "pre_tokenizer": {
    "type": "Whitespace"
  },
  "post_processor": null,
  "decoder": null,
  "model": {
    "type": "BPE",
    "dropout": null,
    "unk_token": "<unk>",
    "continuing_subword_prefix": null,
    "end_of_word_suffix": null,
    "fuse_unk": false,
    "byte_fallback": false,
    "ignore_merges": false,
    "vocab": {
      "<pad>": 0,
      "<unk>": 1,
      "!": 2,
      "\"": 3,
      "#": 4,
      "$": 5,
      "%": 6,
      "&": 7,
      "'": 8,
      "(": 9,
      ")": 10,
      "*": 11,
      "+": 12,
      ",": 13,
      "-": 14,
      ".": 15,
      "/": 16,
      "0": 17,
      "1": 18,
      "2": 19,
      "3": 20,
      "4": 21,
      "5": 22,
      "6": 23,
      "7": 24,
      "8": 25,
      "9": 26,
      ":": 27,
      ";": 28,
      "<": 29,
      "=": 30,
      ">": 31,
      "?": 32,
      "@": 33,
      "[": 34,
      "\\": 35,
      "]": 36,
      "^": 37,
      "_": 38,
      "`": 39,
      "a": 40,
      "b": 41,
      "c": 42,
      "d": 43,
      "e": 44,
      "f": 45,
      "g": 46,
      "h": 47,
      "i": 48,
      "j": 49,
      "k": 50,
      "l": 51,
      "m": 52,
      "n": 53,
      "o": 54,
      "p": 55,
      "q": 56,
      "r": 57,
      "s": 58,
      "t": 59,
      "u": 60,
      "v": 61,
      "w": 62,
      "x": 63,
      "y": 64,
      "z": 65,
      "{": 66,
      "|": 67,
      "}": 68,
      "~": 69,
      "": 70,
      "": 71,
      "": 72,
      "": 73,
      "": 74,
      "": 75,
      "": 76,
      "": 77,
      "": 78,
      "": 79,
      "": 80,
      "": 81,
      "": 82,
      "": 83,
      "": 84,
      "": 85,
      "": 86,
      "": 87,
      "": 88,
      "": 89,
      "": 90,
      "": 91,
      "": 92,
      "": 93,
      "": 94,
      "": 95,
      "": 96,
      "": 97,
      "": 98,
      "¡": 99,
      "¢": 100,
      "£": 101,
      "¤": 102,
      "¥": 103,
      "¦": 104,
      "§": 105,
      "¨": 106,
      "©": 107,
      "ª": 108,
      "«": 109,
      "¬": 110,
      "­": 111,
      "®": 112,
      "¯": 113,
      "°": 114,
      "±": 115,
      "²": 116,
      "³": 117,
      "´": 118,
      "µ": 119,
      "¶": 120,
      "·": 121,
      "¸": 122,
      "¹": 123,
      "º": 124,
      "»": 125,
      "¼": 126,
      "½": 127,
      "¾": 128,
      "¿": 129,
      "×": 130,
      "ß": 131,
      "æ": 132,
      "ð": 133,
      "÷": 134,
      "ø": 135,
      "þ": 136,
      "đ": 137,
      "ħ": 138,
      "ı": 139,
      "ĳ": 140,
      "ĸ": 141,
      "ŀ": 142,
      "ł": 143,
      "ŋ": 144,
      "œ": 145,
      "ſ": 146,
      "ƒ": 147,
      "ƙ": 148,
      "ƛ": 149,
      "ƭ": 150,
      "ǝ": 151,
      "ȣ": 152,
      "ȥ": 153,
      "ȼ": 154,
      "ɐ": 155,
      "ɑ": 156,
      "ɒ": 157,
      "ɔ": 158,
      "ɕ": 159,
      "ə": 160,
      "ɚ": 161,
      "ɛ": 162,
      "ɜ": 163,
      "ɠ": 164,
      "ɡ": 165,
      "ɢ": 166,
      "ɣ": 167,
      "ɤ": 168,
      "ɨ": 169,
      "ɩ": 170,
      "ɪ": 171,
      "ɫ": 172,
      "ɬ": 173,
      "ɯ": 174,
      "ɲ": 175,
      "ɴ": 176,
      "ɵ": 177,
      "ɹ": 178,
      "ɾ": 179,
      "ʀ": 180,
      "ʁ": 181,
      "ʃ": 182,
      "ʊ": 183,
      "ʋ": 184,
      "ʌ": 185,
      "ʎ": 186,
      "ʐ": 187,
      "ʒ": 188,
      "ʔ": 189,
      "ʚ": 190,
      "ʤ": 191,
      "ʦ": 192,
      "ʰ": 193,
      "ʲ": 194,
      "ʺ": 195,
      "ʻ": 196,
      "ʼ": 197,
      "ʾ": 198,
      "ʿ": 199,
      "ˁ": 200,
      "ˆ": 201,
      "ˇ": 202,
      "ˈ": 203,
      "ˌ": 204,
      "ː": 205,
      "ˑ": 206,
      "˘": 207,
      "˙": 208,
      "˚": 209,
      "˛": 210,
      "˜": 211,
      "˝": 212,
      "ˡ": 213,
      "ˤ": 214,
      "΄": 215,
      "α": 216,
      "β": 217,
      "γ": 218,
      "δ": 219,
      "ε": 220,
      "ζ": 221,
      "η": 222,
      "θ": 223,
      "ι": 224,
      "κ": 225,
      "λ": 226,
      "μ": 227,
      "ν": 228,
      "ξ": 229,
      "ο": 230,
      "π": 231,
      "ρ": 232,
      "ς": 233,
      "σ": 234,
      "τ": 235,
      "υ": 236,
      "φ": 237,
      "χ": 238,
      "ψ": 239,
      "ω": 240,
      "а": 241,
      "б": 242,
      "в": 243,
      "г": 244,
      "д": 245,
      "е": 246,
      "ж": 247,
      "з": 248,
      "и": 249,
      "к": 250,
      "л": 251,
      "м": 252,
      "н": 253,
      "о": 254,
      "п": 255,
      "р": 256,
      "с": 257,
      "т": 258,
      "у": 259,
      "ф": 260,
      "х": 261,
      "ц": 262,
      "ч": 263,
      "ш": 264,
      "щ": 265,
      "ъ": 266,
      "ы": 267,
      "ь": 268,
      "э": 269,
      "ю": 270,
      "я": 271,
      "ђ": 272,
      "є": 273,
      "ѕ": 274,
      "і": 275,
      "ј": 276,
      "љ": 277,
      "њ": 278,
      "ћ": 279,
      "џ": 280,
      "ѳ": 281,
      "ґ": 282,
      "ғ": 283,
      "ҙ": 284,
      "қ": 285,
      "ҡ": 286,
      "ң": 287,
      "ү": 288,
      "ұ": 289,
      "ҳ": 290,
      "һ": 291,
      "ә": 292,
      "ө": 293,
      "א": 294,
      "ב": 295,
      "ג": 296,
      "ד": 297,
      "ה": 298,
      "ו": 299,
      "ז": 300,
      "ח": 301,
      "ט": 302,
      "י": 303,
      "כ": 304,
      "ל": 305,
      "ם": 306,
      "מ": 307,
      "ן": 308,
      "נ": 309,
      "ס": 310,
      "ע": 311,
      "פ": 312,
      "ץ": 313,
      "צ": 314,
      "ק": 315,
      "ר": 316,
      "ש": 317,
      "ת": 318,
      "،": 319,
      "؛": 320,
      "ء": 321,
      "ا": 322,
      "ب": 323,
      "ة": 324,
      "ت": 325,
      "ث": 326,
      "ج": 327,
      "ح": 328,
      "خ": 329,
      "د": 330,
      "ذ": 331,
      "ر": 332,
      "ز": 333,
      "س": 334,
      "ش": 335,
      "ص": 336,
      "ض": 337,
      "ط": 338,
      "ظ": 339,
      "ع": 340,
      "غ": 341,
      "ـ": 342,
      "ف": 343,
      "ق": 344,
      "ك": 345,
      "ل": 346,
      "م": 347,
      "ن": 348,
      "ه": 349,
      "و": 350,
      "ى": 351,
      "ي": 352,
      "ٲ": 353,
      "ٹ": 354,
      "ټ": 355,
      "پ": 356,
      "ځ": 357,
      "چ": 358,
      "ڠ": 359,
      "ڤ": 360,
      "ک": 361,
      "ڬ": 362,
      "ڭ": 363,
      "گ": 364,
      "ھ": 365,
      "ہ": 366,
      "ۆ": 367,
      "ۇ": 368,
      "ی": 369,
      "ې": 370,
      "ە": 371,
      "۞": 372,
      "۩": 373,
      "۰": 374,
      "۱": 375,
      "۲": 376,
      "۳": 377,
      "۴": 378,
      "۵": 379,
      "۶": 380,
      "۷": 381,
      "۸": 382,
      "۹": 383,
      "ރ": 384,
      "ކ": 385,
      "އ": 386,
      "މ": 387,
      "ߖ": 388,
      "ߧ": 389,
      "अ": 390,
      "आ": 391,
      "ई": 392,
      "उ": 393,
      "क": 394,
      "ग": 395,
      "च": 396,
      "छ": 397,
      "ज": 398,
      "ञ": 399,
      "ट": 400,
      "ड": 401,
      "ढ": 402,
      "ण": 403,
      "त": 404,
      "थ": 405,
      "द": 406,
      "ध": 407,
      "न": 408,
      "प": 409,
      "ब": 410,
      "भ": 411,
      "म": 412,
      "य": 413,
      "र": 414,
      "ल": 415,
      "व": 416,
      "श": 417,
      "ष": 418,
      "स": 419,
      "ह": 420,
      "ॐ": 421,
      "ॡ": 422,
      "०": 423,
      "१": 424,
      "२": 425,
      "३": 426,
      "५": 427,
      "९": 428,
      "আ": 429,
      "ই": 430,
      "এ": 431,
      "ক": 432,
      "গ": 433,
      "ঙ": 434,
      "চ": 435,
      "ট": 436,
      "ত": 437,
      "ন": 438,
      "প": 439,
      "ব": 440,
      "ম": 441,
      "য": 442,
      "র": 443,
      "ল": 444,
      "শ": 445,
      "ষ": 446,
      "হ": 447,
      "ৰ": 448,
      "ਗ": 449,
      "ਚ": 450,
      "ਡ": 451,
      "ਹ": 452,
      "ੜ": 453,
      "અ": 454,
      "ક": 455,
      "જ": 456,
      "ત": 457,
      "મ": 458,
      "ય": 459,
      "ર": 460,
      "સ": 461,
      "૦": 462,
      "૧": 463,
      "૨": 464,
      "க": 465,
      "ங": 466,
      "ச": 467,
      "ட": 468,
      "த": 469,
      "ன": 470,
      "ப": 471,
      "ம": 472,
      "ய": 473,
      "ர": 474,
      "ல": 475,
      "வ": 476,
      "ஷ": 477,
      "ఆ": 478,
      "క": 479,
      "గ": 480,
      "జ": 481,
      "డ": 482,
      "ద": 483,
      "ధ": 484,
      "న": 485,
      "ప": 486,
      "ర": 487,
      "శ": 488,
      "ಐ": 489,
      "ಯ": 490,
      "ರ": 491,
      "ವ": 492,
      "ಶ": 493,
      "೦": 494,
      "೧": 495,
      "೨": 496,
      "೩": 497,
      "೫": 498,
      "೬": 499,
      "೮": 500,
      "೯": 501,
      "അ": 502,
      "എ": 503,
      "ക": 504,
      "ത": 505,
      "ദ": 506,
      "ന": 507,
      "പ": 508,
      "മ": 509,
      "യ": 510,
      "ല": 511,
      "വ": 512,
      "ഷ": 513,
      "സ": 514,
      "න": 515,
      "ම": 516,
      "ර": 517,
      "ව": 518,
      "හ": 519,
      "ก": 520,
      "ข": 521,
      "ค": 522,
      "ฆ": 523,
      "ง": 524,
      "จ": 525,
      "ฉ": 526,
      "ช": 527,
      "ซ": 528,
      "ญ": 529,
      "ฎ": 530,
      "ฏ": 531,
      "ฐ": 532,
      "ฑ": 533,
      "ฒ": 534,
      "ณ": 535,
      "ด": 536,
      "ต": 537,
      "ถ": 538,
      "ท": 539,
      "ธ": 540,
      "น": 541,
      "บ": 542,
      "ป": 543,
      "ผ": 544,
      "ฝ": 545,
      "พ": 546,
      "ฟ": 547,
      "ภ": 548,
      "ม": 549,
      "ย": 550,
      "ร": 551,
      "ฤ": 552,
      "ล": 553,
      "ว": 554,
      "ศ": 555,
      "ษ": 556,
      "ส": 557,
      "ห": 558,
      "อ": 559,
      "ฮ": 560,
      "ฯ": 561,
      "ะ": 562,
      "า": 563,
      "ำ": 564,
      "฿": 565,
      "เ": 566,
      "แ": 567,
      "โ": 568,
      "ใ": 569,
      "ไ": 570,
      "ๆ": 571,
      "๑": 572,
      "ຂ": 573,
      "ຄ": 574,
      "ງ": 575,
      "ຈ": 576,
      "ດ": 577,
      "ຖ": 578,
      "ນ": 579,
      "ບ": 580,
      "ມ": 581,
      "ລ": 582,
      "ວ": 583,
      "າ": 584,
      "ຽ": 585,
      "ເ": 586,
      "ໜ": 587,
      "་": 588,
      "ཏ": 589,
      "ད": 590,
      "ན": 591,
      "བ": 592,
      "མ": 593,
      "ཚ": 594,
      "འ": 595,
      "ལ": 596,
      "ས": 597,
      "န": 598,
      "ရ": 599,
      "ဝ": 600,
      "သ": 601,
      "ဟ": 602,
      "ა": 603,
      "ბ": 604,
      "გ": 605,
      "დ": 606,
      "ე": 607,
      "ვ": 608,
      "ზ": 609,
      "თ": 610,
      "ი": 611,
      "კ": 612,
      "ლ": 613,
      "მ": 614,
      "ნ": 615,
      "ო": 616,
      "პ": 617,
      "რ": 618,
      "ს": 619,
      "ტ": 620,
      "უ": 621,
      "ქ": 622,
      "ღ": 623,
      "შ": 624,
      "ც": 625,
      "ძ": 626,
      "წ": 627,
      "ხ": 628,
      "ჯ": 629,
      "ᄀ": 630,
      "ᄁ": 631,
      "ᄂ": 632,
      "ᄃ": 633,
      "ᄅ": 634,
      "ᄆ": 635,
      "ᄇ": 636,
      "ᄉ": 637,
      "ᄋ": 638,
      "ᄌ": 639,
      "ᄍ": 640,
      "ᄎ": 641,
      "ᄏ": 642,
      "ᄐ": 643,
      "ᄑ": 644,
      "ᄒ": 645,
      "ᅡ": 646,
      "ᅢ": 647,
      "ᅣ": 648,
      "ᅥ": 649,
      "ᅦ": 650,
      "ᅧ": 651,
      "ᅨ": 652,
      "ᅩ": 653,
      "ᅪ": 654,
      "ᅬ": 655,
      "ᅭ": 656,
      "ᅮ": 657,
      "ᅯ": 658,
      "ᅰ": 659,
      "ᅱ": 660,
      "ᅲ": 661,
      "ᅳ": 662,
      "ᅵ": 663,
      "ᆨ": 664,
      "ᆫ": 665,
      "ᆯ": 666,
      "ᆷ": 667,
      "ᆸ": 668,
      "ᆻ": 669,
      "ᆼ": 670,
      "ᆾ": 671,
      "ህ": 672,
      "ሊ": 673,
      "ል": 674,
      "ሓ": 675,
      "ሕ": 676,
      "መ": 677,
      "ሙ": 678,
      "ሜ": 679,
      "ም": 680,
      "ሥ": 681,
      "ረ": 682,
      "ሪ": 683,
      "ራ": 684,
      "ር": 685,
      "ሰ": 686,
      "ሴ": 687,
      "ስ": 688,
      "ሻ": 689,
      "ሽ": 690,
      "ቀ": 691,
      "ቐ": 692,
      "በ": 693,
      "ቢ": 694,
      "ባ": 695,
      "ተ": 696,
      "ት": 697,
      "ቶ": 698,
      "ነ": 699,
      "ን": 700,
      "አ": 701,
      "ኣ": 702,
      "ኤ": 703,
      "እ": 704,
      "ኦ": 705,
      "ካ": 706,
      "ክ": 707,
      "ዋ": 708,
      "ው": 709,
      "ዓ": 710,
      "ዕ": 711,
      "የ": 712,
      "ይ": 713,
      "ደ": 714,
      "ዲ": 715,
      "ድ": 716,
      "ገ": 717,
      "ጋ": 718,
      "ጨ": 719,
      "ጽ": 720,
      "ፅ": 721,
      "ፈ": 722,
      "ፍ": 723,
      "፣": 724,
      "ᐃ": 725,
      "ᐊ": 726,
      "ᑦ": 727,
      "ᑲ": 728,
      "ᒃ": 729,
      "ᒥ": 730,
      "ᓄ": 731,
      "ᓕ": 732,
      "ដ": 733,
      "ឋ": 734,
      "រ": 735,
      "ស": 736,
      "ហ": 737,
      "​": 738,
      "‌": 739,
      "‍": 740,
      "‎": 741,
      "‏": 742,
      "‐": 743,
      "‑": 744,
      "‒": 745,
      "–": 746,
      "—": 747,
      "―": 748,
      "‖": 749,
      "‘": 750,
      "’": 751,
      "‚": 752,
      "‛": 753,
      "“": 754,
      "”": 755,
      "„": 756,
      "‟": 757,
      "†": 758,
      "‡": 759,
      "•": 760,
      "…": 761,
      "‪": 762,
      "‬": 763,
      "‭": 764,
      "‰": 765,
      "′": 766,
      "″": 767,
      "‶": 768,
      "‹": 769,
      "›": 770,
      "※": 771,
      "‼": 772,
      "‽": 773,
      "⁄": 774,
      "⁴": 775,
      "ⁿ": 776,
      "₁": 777,
      "₂": 778,
      "₠": 779,
      "₣": 780,
      "₤": 781,
      "₩": 782,
      "₪": 783,
      "€": 784,
      "₴": 785,
      "₵": 786,
      "℃": 787,
      "ℓ": 788,
      "℔": 789,
      "№": 790,
      "™": 791,
      "℮": 792,
      "⅓": 793,
      "⅔": 794,
      "⅛": 795,
      "⅞": 796,
      "ⅱ": 797,
      "ⅲ": 798,
      "←": 799,
      "↑": 800,
      "→": 801,
      "↓": 802,
      "↔": 803,
      "↧": 804,
      "⇒": 805,
      "⇔": 806,
      "⇗": 807,
      "⇢": 808,
      "∀": 809,
      "∃": 810,
      "∈": 811,
      "∑": 812,
      "−": 813,
      "∙": 814,
      "√": 815,
      "∞": 816,
      "∫": 817,
      "∴": 818,
      "∶": 819,
      "∼": 820,
      "≈": 821,
      "≡": 822,
      "≤": 823,
      "≥": 824,
      "≪": 825,
      "≫": 826,
      "⋅": 827,
      "⌃": 828,
      "⌘": 829,
      "①": 830,
      "②": 831,
      "③": 832,
      "─": 833,
      "│": 834,
      "┌": 835,
      "┐": 836,
      "└": 837,
      "┘": 838,
      "┬": 839,
      "┴": 840,
      "╚": 841,
      "╞": 842,
      "╩": 843,
      "█": 844,
      "░": 845,
      "▒": 846,
      "■": 847,
      "□": 848,
      "▪": 849,
      "▲": 850,
      "△": 851,
      "▸": 852,
      "►": 853,
      "▼": 854,
      "◆": 855,
      "◇": 856,
      "◈": 857,
      "◊": 858,
      "○": 859,
      "◎": 860,
      "●": 861,
      "◙": 862,
      "◦": 863,
      "★": 864,
      "☆": 865,
      "☎": 866,
      "☏": 867,
      "☑": 868,
      "☯": 869,
      "☺": 870,
      "☻": 871,
      "☼": 872,
      "♀": 873,
      "♂": 874,
      "♠": 875,
      "♣": 876,
      "♥": 877,
      "♦": 878,
      "♪": 879,
      "♫": 880,
      "✿": 881,
      "➔": 882,
      "➚": 883,
      "➟": 884,
      "➲": 885,
      "ⰶ": 886,
      "ⲉ": 887,
      "ⲟ": 888,
      "ⲡ": 889,
      "ⲣ": 890,
      "ⲩ": 891,
      "、": 892,
      "。": 893,
      "々": 894,
      "《": 895,
      "》": 896,
      "「": 897,
      "」": 898,
      "『": 899,
      "』": 900,
      "【": 901,
      "】": 902,
      "〔": 903,
      "〕": 904,
      "〜": 905,
      "ぁ": 906,
      "あ": 907,
      "ぃ": 908,
      "い": 909,
      "う": 910,
      "ぇ": 911,
      "え": 912,
      "お": 913,
      "か": 914,
      "き": 915,
      "く": 916,
      "け": 917,
      "こ": 918,
      "さ": 919,
      "し": 920,
      "す": 921,
      "せ": 922,
      "そ": 923,
      "た": 924,
      "ち": 925,
      "っ": 926,
      "つ": 927,
      "て": 928,
      "と": 929,
      "な": 930,
      "に": 931,
      "ぬ": 932,
      "ね": 933,
      "の": 934,
      "は": 935,
      "ひ": 936,
      "ふ": 937,
      "へ": 938,
      "ほ": 939,
      "ま": 940,
      "み": 941,
      "む": 942,
      "め": 943,
      "も": 944,
      "ゃ": 945,
      "や": 946,
      "ゅ": 947,
      "ゆ": 948,
      "ょ": 949,
      "よ": 950,
      "ら": 951,
      "り": 952,
      "る": 953,
      "れ": 954,
      "ろ": 955,
      "わ": 956,
      "ゐ": 957,
      "ゑ": 958,
      "を": 959,
      "ん": 960,
      "゛": 961,
      "゜": 962,
      "ァ": 963,
      "ア": 964,
      "ィ": 965,
      "イ": 966,
      "ゥ": 967,
      "ウ": 968,
      "ェ": 969,
      "エ": 970,
      "ォ": 971,
      "オ": 972,
      "カ": 973,
      "キ": 974,
      "ク": 975,
      "ケ": 976,
      "コ": 977,
      "サ": 978,
      "シ": 979,
      "ス": 980,
      "セ": 981,
      "ソ": 982,
      "タ": 983,
      "チ": 984,
      "ッ": 985,
      "ツ": 986,
      "テ": 987,
      "ト": 988,
      "ナ": 989,
      "ニ": 990,
      "ヌ": 991,
      "ネ": 992,
      "ノ": 993,
      "ハ": 994,
      "ヒ": 995,
      "フ": 996,
      "ヘ": 997,
      "ホ": 998,
      "マ": 999,
      "ミ": 1000,
      "ム": 1001,
      "メ": 1002,
      "モ": 1003,
      "ャ": 1004,
      "ヤ": 1005,
      "ュ": 1006,
      "ユ": 1007,
      "ョ": 1008,
      "ヨ": 1009,
      "ラ": 1010,
      "リ": 1011,
      "ル": 1012,
      "レ": 1013,
      "ロ": 1014,
      "ワ": 1015,
      "ン": 1016,
      "・": 1017,
      "ー": 1018,
      "ㄅ": 1019,
      "ㄆ": 1020,
      "ㄇ": 1021,
      "ㄈ": 1022,
      "ㄤ": 1023,
      "ㄧ": 1024,
      "ㅓ": 1025,
      "ㅔ": 1026,
      "ㅕ": 1027,
      "ㅖ": 1028,
      "ㅡ": 1029,
      "ㅣ": 1030,
      "㎡": 1031,
      "䟩": 1032,
      "一": 1033,
      "七": 1034,
      "万": 1035,
      "丈": 1036,
      "三": 1037,
      "上": 1038,
      "下": 1039,
      "不": 1040,
      "与": 1041,
      "专": 1042,
      "世": 1043,
      "丘": 1044,
      "业": 1045,
      "东": 1046,
      "两": 1047,
      "严": 1048,
      "丨": 1049,
      "个": 1050,
      "中": 1051,
      "丰": 1052,
      "临": 1053,
      "丸": 1054,
      "丹": 1055,
      "为": 1056,
      "主": 1057,
      "丼": 1058,
      "丽": 1059,
      "举": 1060,
      "久": 1061,
      "么": 1062,
      "义": 1063,
      "之": 1064,
      "乌": 1065,
      "乎": 1066,
      "乏": 1067,
      "乐": 1068,
      "乗": 1069,
      "乘": 1070,
      "乙": 1071,
      "九": 1072,
      "也": 1073,
      "习": 1074,
      "乡": 1075,
      "书": 1076,
      "买": 1077,
      "乱": 1078,
      "乾": 1079,
      "了": 1080,
      "争": 1081,
      "事": 1082,
      "二": 1083,
      "于": 1084,
      "云": 1085,
      "互": 1086,
      "五": 1087,
      "井": 1088,
      "亚": 1089,
      "些": 1090,
      "亜": 1091,
      "亞": 1092,
      "交": 1093,
      "产": 1094,
      "亨": 1095,
      "京": 1096,
      "人": 1097,
      "亿": 1098,
      "什": 1099,
      "仁": 1100,
      "仅": 1101,
      "今": 1102,
      "介": 1103,
      "仍": 1104,
      "从": 1105,
      "他": 1106,
      "付": 1107,
      "仙": 1108,
      "仝": 1109,
      "代": 1110,
      "以": 1111,
      "仪": 1112,
      "们": 1113,
      "仮": 1114,
      "仲": 1115,
      "件": 1116,
      "价": 1117,
      "任": 1118,
      "伊": 1119,
      "伎": 1120,
      "伏": 1121,
      "伐": 1122,
      "休": 1123,
      "众": 1124,
      "优": 1125,
      "会": 1126,
      "伝": 1127,
      "伟": 1128,
      "传": 1129,
      "伦": 1130,
      "伯": 1131,
      "估": 1132,
      "伴": 1133,
      "伸": 1134,
      "似": 1135,
      "但": 1136,
      "位": 1137,
      "低": 1138,
      "住": 1139,
      "佐": 1140,
      "佑": 1141,
      "体": 1142,
      "何": 1143,
      "佗": 1144,
      "余": 1145,
      "作": 1146,
      "你": 1147,
      "佰": 1148,
      "使": 1149,
      "例": 1150,
      "侍": 1151,
      "供": 1152,
      "依": 1153,
      "便": 1154,
      "俄": 1155,
      "俊": 1156,
      "保": 1157,
      "信": 1158,
      "修": 1159,
      "倉": 1160,
      "個": 1161,
      "倍": 1162,
      "倒": 1163,
      "候": 1164,
      "值": 1165,
      "假": 1166,
      "做": 1167,
      "健": 1168,
      "側": 1169,
      "備": 1170,
      "储": 1171,
      "傳": 1172,
      "傷": 1173,
      "働": 1174,
      "像": 1175,
      "僕": 1176,
      "儀": 1177,
      "儉": 1178,
      "元": 1179,
      "先": 1180,
      "光": 1181,
      "克": 1182,
      "免": 1183,
      "入": 1184,
      "內": 1185,
      "全": 1186,
      "兩": 1187,
      "八": 1188,
      "公": 1189,
      "六": 1190,
      "兰": 1191,
      "共": 1192,
      "关": 1193,
      "兴": 1194,
      "兵": 1195,
      "其": 1196,
      "具": 1197,
      "养": 1198,
      "兽": 1199,
      "内": 1200,
      "円": 1201,
      "冊": 1202,
      "册": 1203,
      "再": 1204,
      "写": 1205,
      "军": 1206,
      "农": 1207,
      "冤": 1208,
      "冰": 1209,
      "决": 1210,
      "况": 1211,
      "冷": 1212,
      "净": 1213,
      "凄": 1214,
      "准": 1215,
      "凉": 1216,
      "凍": 1217,
      "减": 1218,
      "几": 1219,
      "凶": 1220,
      "凸": 1221,
      "出": 1222,
      "函": 1223,
      "刀": 1224,
      "分": 1225,
      "切": 1226,
      "刑": 1227,
      "列": 1228,
      "刘": 1229,
      "则": 1230,
      "刚": 1231,
      "创": 1232,
      "判": 1233,
      "別": 1234,
      "刨": 1235,
      "利": 1236,
      "别": 1237,
      "到": 1238,
      "制": 1239,
      "刺": 1240,
      "則": 1241,
      "前": 1242,
      "剑": 1243,
      "剣": 1244,
      "剥": 1245,
      "剧": 1246,
      "剩": 1247,
      "副": 1248,
      "割": 1249,
      "創": 1250,
      "劇": 1251,
      "劉": 1252,
      "力": 1253,
      "功": 1254,
      "加": 1255,
      "务": 1256,
      "动": 1257,
      "助": 1258,
      "努": 1259,
      "劳": 1260,
      "势": 1261,
      "動": 1262,
      "勝": 1263,
      "勞": 1264,
      "勢": 1265,
      "勧": 1266,
      "勿": 1267,
      "包": 1268,
      "化": 1269,
      "北": 1270,
      "匠": 1271,
      "匡": 1272,
      "匹": 1273,
      "区": 1274,
      "医": 1275,
      "匿": 1276,
      "區": 1277,
      "十": 1278,
      "千": 1279,
      "升": 1280,
      "半": 1281,
      "卍": 1282,
      "华": 1283,
      "协": 1284,
      "卐": 1285,
      "卓": 1286,
      "单": 1287,
      "卖": 1288,
      "南": 1289,
      "博": 1290,
      "卡": 1291,
      "卦": 1292,
      "卫": 1293,
      "印": 1294,
      "危": 1295,
      "即": 1296,
      "却": 1297,
      "厂": 1298,
      "原": 1299,
      "去": 1300,
      "县": 1301,
      "参": 1302,
      "參": 1303,
      "及": 1304,
      "友": 1305,
      "双": 1306,
      "反": 1307,
      "发": 1308,
      "取": 1309,
      "受": 1310,
      "变": 1311,
      "叡": 1312,
      "口": 1313,
      "古": 1314,
      "另": 1315,
      "只": 1316,
      "叫": 1317,
      "召": 1318,
      "可": 1319,
      "台": 1320,
      "史": 1321,
      "右": 1322,
      "号": 1323,
      "司": 1324,
      "吃": 1325,
      "各": 1326,
      "合": 1327,
      "吉": 1328,
      "吊": 1329,
      "同": 1330,
      "名": 1331,
      "后": 1332,
      "向": 1333,
      "吗": 1334,
      "君": 1335,
      "否": 1336,
      "吧": 1337,
      "吨": 1338,
      "含": 1339,
      "听": 1340,
      "吳": 1341,
      "吴": 1342,
      "吸": 1343,
      "吹": 1344,
      "吾": 1345,
      "呀": 1346,
      "呂": 1347,
      "呆": 1348,
      "呉": 1349,
      "告": 1350,
      "呑": 1351,
      "员": 1352,
      "周": 1353,
      "味": 1354,
      "呼": 1355,
      "命": 1356,
      "咆": 1357,
      "和": 1358,
      "咬": 1359,
      "品": 1360,
      "哈": 1361,
      "响": 1362,
      "員": 1363,
      "哥": 1364,
      "哮": 1365,
      "哲": 1366,
      "唐": 1367,
      "售": 1368,
      "唸": 1369,
      "商": 1370,
      "問": 1371,
      "啤": 1372,
      "啦": 1373,
      "喀": 1374,
      "喂": 1375,
      "善": 1376,
      "喇": 1377,
      "喜": 1378,
      "喫": 1379,
      "嗣": 1380,
      "嘉": 1381,
      "嘛": 1382,
      "嘟": 1383,
      "噌": 1384,
      "噛": 1385,
      "器": 1386,
      "嚴": 1387,
      "四": 1388,
      "回": 1389,
      "因": 1390,
      "団": 1391,
      "囧": 1392,
      "园": 1393,
      "困": 1394,
      "固": 1395,
      "国": 1396,
      "图": 1397,
      "圆": 1398,
      "國": 1399,
      "圍": 1400,
      "圏": 1401,
      "園": 1402,
      "圓": 1403,
      "圖": 1404,
      "土": 1405,
      "在": 1406,
      "地": 1407,
      "圳": 1408,
      "场": 1409,
      "址": 1410,
      "坂": 1411,
      "均": 1412,
      "坊": 1413,
      "坐": 1414,
      "块": 1415,
      "坛": 1416,
      "坝": 1417,
      "坡": 1418,
      "坤": 1419,
      "坪": 1420,
      "型": 1421,
      "垣": 1422,
      "城": 1423,
      "埔": 1424,
      "域": 1425,
      "基": 1426,
      "堂": 1427,
      "堆": 1428,
      "堤": 1429,
      "堰": 1430,
      "報": 1431,
      "場": 1432,
      "塊": 1433,
      "塔": 1434,
      "塗": 1435,
      "塞": 1436,
      "塩": 1437,
      "塾": 1438,
      "増": 1439,
      "增": 1440,
      "墟": 1441,
      "墩": 1442,
      "壊": 1443,
      "士": 1444,
      "壮": 1445,
      "売": 1446,
      "壳": 1447,
      "壹": 1448,
      "壽": 1449,
      "处": 1450,
      "备": 1451,
      "変": 1452,
      "复": 1453,
      "夏": 1454,
      "夕": 1455,
      "外": 1456,
      "多": 1457,
      "夛": 1458,
      "夜": 1459,
      "够": 1460,
      "夢": 1461,
      "大": 1462,
      "天": 1463,
      "太": 1464,
      "夫": 1465,
      "央": 1466,
      "头": 1467,
      "夷": 1468,
      "夹": 1469,
      "奄": 1470,
      "奇": 1471,
      "奈": 1472,
      "奉": 1473,
      "套": 1474,
      "奘": 1475,
      "奚": 1476,
      "奥": 1477,
      "女": 1478,
      "奶": 1479,
      "奸": 1480,
      "好": 1481,
      "如": 1482,
      "妖": 1483,
      "妤": 1484,
      "妨": 1485,
      "妻": 1486,
      "姆": 1487,
      "始": 1488,
      "委": 1489,
      "姦": 1490,
      "威": 1491,
      "娃": 1492,
      "娄": 1493,
      "娜": 1494,
      "娣": 1495,
      "娥": 1496,
      "娱": 1497,
      "婁": 1498,
      "婦": 1499,
      "婷": 1500,
      "媛": 1501,
      "嫌": 1502,
      "子": 1503,
      "字": 1504,
      "存": 1505,
      "季": 1506,
      "学": 1507,
      "孴": 1508,
      "學": 1509,
      "宁": 1510,
      "它": 1511,
      "宇": 1512,
      "安": 1513,
      "宋": 1514,
      "完": 1515,
      "宏": 1516,
      "宗": 1517,
      "官": 1518,
      "定": 1519,
      "宜": 1520,
      "宝": 1521,
      "实": 1522,
      "実": 1523,
      "客": 1524,
      "宣": 1525,
      "室": 1526,
      "宫": 1527,
      "宮": 1528,
      "宰": 1529,
      "家": 1530,
      "容": 1531,
      "宿": 1532,
      "寄": 1533,
      "密": 1534,
      "富": 1535,
      "寤": 1536,
      "實": 1537,
      "寧": 1538,
      "寨": 1539,
      "寳": 1540,
      "寶": 1541,
      "寸": 1542,
      "对": 1543,
      "寺": 1544,
      "寻": 1545,
      "寿": 1546,
      "専": 1547,
      "将": 1548,
      "小": 1549,
      "少": 1550,
      "尔": 1551,
      "尘": 1552,
      "就": 1553,
      "尽": 1554,
      "尾": 1555,
      "尿": 1556,
      "局": 1557,
      "屄": 1558,
      "居": 1559,
      "屈": 1560,
      "届": 1561,
      "屋": 1562,
      "屏": 1563,
      "展": 1564,
      "属": 1565,
      "屯": 1566,
      "山": 1567,
      "屿": 1568,
      "岐": 1569,
      "岗": 1570,
      "岛": 1571,
      "岡": 1572,
      "岩": 1573,
      "岭": 1574,
      "岳": 1575,
      "岷": 1576,
      "岸": 1577,
      "島": 1578,
      "峻": 1579,
      "峽": 1580,
      "崎": 1581,
      "崔": 1582,
      "崖": 1583,
      "崩": 1584,
      "嵥": 1585,
      "嶺": 1586,
      "嶼": 1587,
      "川": 1588,
      "州": 1589,
      "工": 1590,
      "左": 1591,
      "巧": 1592,
      "巨": 1593,
      "差": 1594,
      "己": 1595,
      "已": 1596,
      "巴": 1597,
      "巻": 1598,
      "市": 1599,
      "布": 1600,
      "师": 1601,
      "希": 1602,
      "帝": 1603,
      "帥": 1604,
      "带": 1605,
      "師": 1606,
      "席": 1607,
      "帯": 1608,
      "常": 1609,
      "幌": 1610,
      "幡": 1611,
      "幣": 1612,
      "干": 1613,
      "平": 1614,
      "年": 1615,
      "并": 1616,
      "幸": 1617,
      "幹": 1618,
      "幾": 1619,
      "广": 1620,
      "庁": 1621,
      "広": 1622,
      "庄": 1623,
      "庆": 1624,
      "序": 1625,
      "库": 1626,
      "应": 1627,
      "底": 1628,
      "店": 1629,
      "庚": 1630,
      "府": 1631,
      "废": 1632,
      "度": 1633,
      "座": 1634,
      "庫": 1635,
      "庭": 1636,
      "康": 1637,
      "廃": 1638,
      "廣": 1639,
      "建": 1640,
      "开": 1641,
      "弁": 1642,
      "异": 1643,
      "弄": 1644,
      "式": 1645,
      "弓": 1646,
      "弔": 1647,
      "引": 1648,
      "张": 1649,
      "弦": 1650,
      "張": 1651,
      "强": 1652,
      "当": 1653,
      "形": 1654,
      "彩": 1655,
      "彭": 1656,
      "彰": 1657,
      "影": 1658,
      "役": 1659,
      "彻": 1660,
      "彼": 1661,
      "征": 1662,
      "待": 1663,
      "很": 1664,
      "律": 1665,
      "後": 1666,
      "徐": 1667,
      "徒": 1668,
      "得": 1669,
      "御": 1670,
      "復": 1671,
      "循": 1672,
      "微": 1673,
      "徳": 1674,
      "德": 1675,
      "徹": 1676,
      "徽": 1677,
      "心": 1678,
      "必": 1679,
      "忆": 1680,
      "忍": 1681,
      "志": 1682,
      "忘": 1683,
      "応": 1684,
      "忠": 1685,
      "快": 1686,
      "念": 1687,
      "忻": 1688,
      "忽": 1689,
      "态": 1690,
      "怒": 1691,
      "思": 1692,
      "怡": 1693,
      "急": 1694,
      "性": 1695,
      "怪": 1696,
      "总": 1697,
      "恋": 1698,
      "恢": 1699,
      "恩": 1700,
      "息": 1701,
      "恵": 1702,
      "悟": 1703,
      "悠": 1704,
      "患": 1705,
      "您": 1706,
      "悩": 1707,
      "悪": 1708,
      "悬": 1709,
      "情": 1710,
      "惑": 1711,
      "惠": 1712,
      "惧": 1713,
      "惯": 1714,
      "想": 1715,
      "意": 1716,
      "愛": 1717,
      "感": 1718,
      "慈": 1719,
      "態": 1720,
      "慎": 1721,
      "慢": 1722,
      "慣": 1723,
      "慶": 1724,
      "憎": 1725,
      "憨": 1726,
      "憩": 1727,
      "憶": 1728,
      "憾": 1729,
      "應": 1730,
      "成": 1731,
      "我": 1732,
      "戒": 1733,
      "或": 1734,
      "战": 1735,
      "截": 1736,
      "戴": 1737,
      "戶": 1738,
      "户": 1739,
      "戸": 1740,
      "戻": 1741,
      "房": 1742,
      "所": 1743,
      "扈": 1744,
      "手": 1745,
      "才": 1746,
      "打": 1747,
      "払": 1748,
      "找": 1749,
      "承": 1750,
      "技": 1751,
      "投": 1752,
      "抗": 1753,
      "折": 1754,
      "抜": 1755,
      "护": 1756,
      "报": 1757,
      "抵": 1758,
      "抹": 1759,
      "押": 1760,
      "担": 1761,
      "拉": 1762,
      "拒": 1763,
      "拓": 1764,
      "招": 1765,
      "拟": 1766,
      "择": 1767,
      "括": 1768,
      "拳": 1769,
      "拼": 1770,
      "拿": 1771,
      "持": 1772,
      "挂": 1773,
      "指": 1774,
      "按": 1775,
      "挑": 1776,
      "挠": 1777,
      "挡": 1778,
      "振": 1779,
      "损": 1780,
      "据": 1781,
      "捷": 1782,
      "掉": 1783,
      "排": 1784,
      "掛": 1785,
      "採": 1786,
      "探": 1787,
      "接": 1788,
      "控": 1789,
      "推": 1790,
      "措": 1791,
      "掻": 1792,
      "揂": 1793,
      "揃": 1794,
      "提": 1795,
      "揚": 1796,
      "換": 1797,
      "握": 1798,
      "援": 1799,
      "搅": 1800,
      "損": 1801,
      "搜": 1802,
      "搞": 1803,
      "携": 1804,
      "摂": 1805,
      "摆": 1806,
      "摇": 1807,
      "摩": 1808,
      "撒": 1809,
      "撤": 1810,
      "撫": 1811,
      "播": 1812,
      "撮": 1813,
      "操": 1814,
      "支": 1815,
      "收": 1816,
      "改": 1817,
      "攻": 1818,
      "放": 1819,
      "政": 1820,
      "故": 1821,
      "效": 1822,
      "敏": 1823,
      "救": 1824,
      "教": 1825,
      "散": 1826,
      "敦": 1827,
      "敬": 1828,
      "数": 1829,
      "整": 1830,
      "文": 1831,
      "斗": 1832,
      "料": 1833,
      "斯": 1834,
      "新": 1835,
      "方": 1836,
      "施": 1837,
      "旅": 1838,
      "旋": 1839,
      "族": 1840,
      "无": 1841,
      "日": 1842,
      "旧": 1843,
      "旨": 1844,
      "旭": 1845,
      "旱": 1846,
      "时": 1847,
      "昇": 1848,
      "昌": 1849,
      "明": 1850,
      "易": 1851,
      "星": 1852,
      "映": 1853,
      "春": 1854,
      "昭": 1855,
      "是": 1856,
      "显": 1857,
      "時": 1858,
      "晏": 1859,
      "晨": 1860,
      "普": 1861,
      "景": 1862,
      "智": 1863,
      "暂": 1864,
      "暨": 1865,
      "暫": 1866,
      "暴": 1867,
      "曌": 1868,
      "曝": 1869,
      "更": 1870,
      "書": 1871,
      "曹": 1872,
      "曾": 1873,
      "最": 1874,
      "會": 1875,
      "月": 1876,
      "有": 1877,
      "服": 1878,
      "朔": 1879,
      "朗": 1880,
      "望": 1881,
      "朝": 1882,
      "期": 1883,
      "木": 1884,
      "未": 1885,
      "末": 1886,
      "本": 1887,
      "札": 1888,
      "术": 1889,
      "朱": 1890,
      "机": 1891,
      "杂": 1892,
      "李": 1893,
      "杏": 1894,
      "材": 1895,
      "村": 1896,
      "束": 1897,
      "条": 1898,
      "来": 1899,
      "杨": 1900,
      "杭": 1901,
      "東": 1902,
      "松": 1903,
      "板": 1904,
      "极": 1905,
      "构": 1906,
      "析": 1907,
      "林": 1908,
      "枚": 1909,
      "果": 1910,
      "枡": 1911,
      "枫": 1912,
      "架": 1913,
      "某": 1914,
      "染": 1915,
      "柔": 1916,
      "查": 1917,
      "柱": 1918,
      "柴": 1919,
      "标": 1920,
      "树": 1921,
      "校": 1922,
      "株": 1923,
      "样": 1924,
      "核": 1925,
      "根": 1926,
      "格": 1927,
      "栽": 1928,
      "桂": 1929,
      "桃": 1930,
      "框": 1931,
      "案": 1932,
      "桓": 1933,
      "桜": 1934,
      "桥": 1935,
      "桩": 1936,
      "桶": 1937,
      "梁": 1938,
      "梅": 1939,
      "梨": 1940,
      "械": 1941,
      "检": 1942,
      "棒": 1943,
      "森": 1944,
      "棲": 1945,
      "椅": 1946,
      "植": 1947,
      "検": 1948,
      "楠": 1949,
      "業": 1950,
      "極": 1951,
      "楼": 1952,
      "楽": 1953,
      "樓": 1954,
      "標": 1955,
      "模": 1956,
      "横": 1957,
      "樱": 1958,
      "樹": 1959,
      "橋": 1960,
      "機": 1961,
      "橿": 1962,
      "檀": 1963,
      "次": 1964,
      "欢": 1965,
      "欧": 1966,
      "款": 1967,
      "歌": 1968,
      "止": 1969,
      "正": 1970,
      "此": 1971,
      "步": 1972,
      "武": 1973,
      "歩": 1974,
      "歳": 1975,
      "歸": 1976,
      "死": 1977,
      "殊": 1978,
      "段": 1979,
      "殷": 1980,
      "殻": 1981,
      "殿": 1982,
      "毁": 1983,
      "母": 1984,
      "毎": 1985,
      "每": 1986,
      "毓": 1987,
      "比": 1988,
      "毛": 1989,
      "氏": 1990,
      "民": 1991,
      "气": 1992,
      "気": 1993,
      "氣": 1994,
      "氧": 1995,
      "氮": 1996,
      "水": 1997,
      "氷": 1998,
      "永": 1999,
      "汁": 2000,
      "求": 2001,
      "汇": 2002,
      "汉": 2003,
      "汕": 2004,
      "江": 2005,
      "池": 2006,
      "汤": 2007,
      "汴": 2008,
      "決": 2009,
      "沈": 2010,
      "沌": 2011,
      "沙": 2012,
      "沛": 2013,
      "没": 2014,
      "沢": 2015,
      "沪": 2016,
      "沱": 2017,
      "河": 2018,
      "油": 2019,
      "治": 2020,
      "沿": 2021,
      "況": 2022,
      "泄": 2023,
      "泉": 2024,
      "泊": 2025,
      "法": 2026,
      "波": 2027,
      "泥": 2028,
      "注": 2029,
      "泰": 2030,
      "泽": 2031,
      "洁": 2032,
      "洋": 2033,
      "洒": 2034,
      "洗": 2035,
      "洛": 2036,
      "洞": 2037,
      "洪": 2038,
      "洲": 2039,
      "活": 2040,
      "派": 2041,
      "流": 2042,
      "浄": 2043,
      "测": 2044,
      "济": 2045,
      "浙": 2046,
      "浜": 2047,
      "浦": 2048,
      "浮": 2049,
      "浴": 2050,
      "海": 2051,
      "涂": 2052,
      "消": 2053,
      "涌": 2054,
      "涩": 2055,
      "淡": 2056,
      "淫": 2057,
      "深": 2058,
      "混": 2059,
      "淹": 2060,
      "清": 2061,
      "済": 2062,
      "渋": 2063,
      "渐": 2064,
      "減": 2065,
      "渝": 2066,
      "渡": 2067,
      "温": 2068,
      "港": 2069,
      "渲": 2070,
      "渴": 2071,
      "游": 2072,
      "湄": 2073,
      "湖": 2074,
      "湘": 2075,
      "湯": 2076,
      "湾": 2077,
      "満": 2078,
      "溉": 2079,
      "源": 2080,
      "溜": 2081,
      "溝": 2082,
      "溢": 2083,
      "溥": 2084,
      "溪": 2085,
      "溫": 2086,
      "溯": 2087,
      "溶": 2088,
      "滇": 2089,
      "滞": 2090,
      "滨": 2091,
      "滬": 2092,
      "漢": 2093,
      "漫": 2094,
      "潜": 2095,
      "潟": 2096,
      "潢": 2097,
      "潭": 2098,
      "潮": 2099,
      "澄": 2100,
      "澎": 2101,
      "澤": 2102,
      "澳": 2103,
      "激": 2104,
      "濟": 2105,
      "濱": 2106,
      "灌": 2107,
      "灣": 2108,
      "火": 2109,
      "灯": 2110,
      "灰": 2111,
      "灾": 2112,
      "炎": 2113,
      "炯": 2114,
      "点": 2115,
      "為": 2116,
      "烈": 2117,
      "烏": 2118,
      "烦": 2119,
      "烧": 2120,
      "热": 2121,
      "無": 2122,
      "焦": 2123,
      "然": 2124,
      "焼": 2125,
      "煙": 2126,
      "照": 2127,
      "煩": 2128,
      "煮": 2129,
      "熊": 2130,
      "熟": 2131,
      "熨": 2132,
      "熱": 2133,
      "燃": 2134,
      "燕": 2135,
      "燗": 2136,
      "爆": 2137,
      "爛": 2138,
      "爪": 2139,
      "爱": 2140,
      "父": 2141,
      "爻": 2142,
      "爾": 2143,
      "片": 2144,
      "版": 2145,
      "牌": 2146,
      "牙": 2147,
      "牛": 2148,
      "物": 2149,
      "特": 2150,
      "状": 2151,
      "狐": 2152,
      "狗": 2153,
      "独": 2154,
      "狭": 2155,
      "猛": 2156,
      "猪": 2157,
      "献": 2158,
      "獄": 2159,
      "獲": 2160,
      "玄": 2161,
      "率": 2162,
      "玉": 2163,
      "王": 2164,
      "环": 2165,
      "现": 2166,
      "玲": 2167,
      "珈": 2168,
      "珍": 2169,
      "珠": 2170,
      "班": 2171,
      "球": 2172,
      "理": 2173,
      "琢": 2174,
      "琲": 2175,
      "瑠": 2176,
      "瑩": 2177,
      "璃": 2178,
      "璐": 2179,
      "環": 2180,
      "瓊": 2181,
      "瓶": 2182,
      "甜": 2183,
      "生": 2184,
      "用": 2185,
      "田": 2186,
      "由": 2187,
      "甲": 2188,
      "申": 2189,
      "电": 2190,
      "男": 2191,
      "甸": 2192,
      "町": 2193,
      "画": 2194,
      "界": 2195,
      "留": 2196,
      "畢": 2197,
      "略": 2198,
      "番": 2199,
      "畿": 2200,
      "疆": 2201,
      "疏": 2202,
      "疑": 2203,
      "疗": 2204,
      "疫": 2205,
      "病": 2206,
      "痛": 2207,
      "痴": 2208,
      "瘤": 2209,
      "癌": 2210,
      "癪": 2211,
      "発": 2212,
      "登": 2213,
      "白": 2214,
      "百": 2215,
      "的": 2216,
      "皇": 2217,
      "皮": 2218,
      "盆": 2219,
      "益": 2220,
      "盐": 2221,
      "监": 2222,
      "盖": 2223,
      "盗": 2224,
      "盛": 2225,
      "監": 2226,
      "盧": 2227,
      "目": 2228,
      "直": 2229,
      "相": 2230,
      "省": 2231,
      "看": 2232,
      "県": 2233,
      "真": 2234,
      "眩": 2235,
      "眼": 2236,
      "着": 2237,
      "睛": 2238,
      "睦": 2239,
      "瞎": 2240,
      "瞳": 2241,
      "瞻": 2242,
      "矢": 2243,
      "知": 2244,
      "短": 2245,
      "石": 2246,
      "矿": 2247,
      "码": 2248,
      "砂": 2249,
      "砕": 2250,
      "破": 2251,
      "硝": 2252,
      "硬": 2253,
      "确": 2254,
      "碁": 2255,
      "碍": 2256,
      "碧": 2257,
      "碳": 2258,
      "確": 2259,
      "磁": 2260,
      "磨": 2261,
      "磷": 2262,
      "礱": 2263,
      "示": 2264,
      "礼": 2265,
      "社": 2266,
      "祖": 2267,
      "祝": 2268,
      "神": 2269,
      "票": 2270,
      "祭": 2271,
      "祸": 2272,
      "祿": 2273,
      "禁": 2274,
      "禅": 2275,
      "福": 2276,
      "禪": 2277,
      "禹": 2278,
      "禽": 2279,
      "秀": 2280,
      "私": 2281,
      "秉": 2282,
      "秋": 2283,
      "种": 2284,
      "科": 2285,
      "租": 2286,
      "秦": 2287,
      "积": 2288,
      "称": 2289,
      "移": 2290,
      "稀": 2291,
      "稅": 2292,
      "程": 2293,
      "税": 2294,
      "稱": 2295,
      "稲": 2296,
      "稳": 2297,
      "稻": 2298,
      "稼": 2299,
      "稿": 2300,
      "穷": 2301,
      "空": 2302,
      "立": 2303,
      "站": 2304,
      "竜": 2305,
      "竞": 2306,
      "章": 2307,
      "端": 2308,
      "競": 2309,
      "竹": 2310,
      "笠": 2311,
      "第": 2312,
      "筆": 2313,
      "等": 2314,
      "筑": 2315,
      "答": 2316,
      "策": 2317,
      "签": 2318,
      "简": 2319,
      "箍": 2320,
      "箕": 2321,
      "管": 2322,
      "箱": 2323,
      "節": 2324,
      "篇": 2325,
      "簡": 2326,
      "米": 2327,
      "类": 2328,
      "粉": 2329,
      "粤": 2330,
      "粮": 2331,
      "粵": 2332,
      "精": 2333,
      "糖": 2334,
      "糸": 2335,
      "系": 2336,
      "紀": 2337,
      "紂": 2338,
      "紅": 2339,
      "紋": 2340,
      "納": 2341,
      "純": 2342,
      "紙": 2343,
      "級": 2344,
      "素": 2345,
      "索": 2346,
      "紧": 2347,
      "細": 2348,
      "紹": 2349,
      "終": 2350,
      "経": 2351,
      "結": 2352,
      "絞": 2353,
      "統": 2354,
      "經": 2355,
      "継": 2356,
      "続": 2357,
      "網": 2358,
      "綺": 2359,
      "総": 2360,
      "線": 2361,
      "縣": 2362,
      "縮": 2363,
      "繁": 2364,
      "織": 2365,
      "红": 2366,
      "约": 2367,
      "级": 2368,
      "纪": 2369,
      "纷": 2370,
      "纸": 2371,
      "纹": 2372,
      "纽": 2373,
      "线": 2374,
      "组": 2375,
      "细": 2376,
      "终": 2377,
      "绍": 2378,
      "经": 2379,
      "绝": 2380,
      "绞": 2381,
      "统": 2382,
      "绪": 2383,
      "续": 2384,
      "维": 2385,
      "缓": 2386,
      "缩": 2387,
      "缺": 2388,
      "网": 2389,
      "罗": 2390,
      "罪": 2391,
      "置": 2392,
      "署": 2393,
      "羅": 2394,
      "美": 2395,
      "群": 2396,
      "義": 2397,
      "羲": 2398,
      "羽": 2399,
      "翁": 2400,
      "習": 2401,
      "翠": 2402,
      "翻": 2403,
      "翼": 2404,
      "耀": 2405,
      "老": 2406,
      "考": 2407,
      "者": 2408,
      "而": 2409,
      "耐": 2410,
      "耕": 2411,
      "耳": 2412,
      "耶": 2413,
      "耸": 2414,
      "联": 2415,
      "聖": 2416,
      "聞": 2417,
      "聼": 2418,
      "肉": 2419,
      "股": 2420,
      "肥": 2421,
      "育": 2422,
      "胁": 2423,
      "背": 2424,
      "胖": 2425,
      "胜": 2426,
      "胞": 2427,
      "胡": 2428,
      "能": 2429,
      "脑": 2430,
      "脖": 2431,
      "脚": 2432,
      "脱": 2433,
      "腔": 2434,
      "腕": 2435,
      "腰": 2436,
      "腹": 2437,
      "腺": 2438,
      "膚": 2439,
      "臂": 2440,
      "臈": 2441,
      "臓": 2442,
      "臘": 2443,
      "臣": 2444,
      "臧": 2445,
      "臨": 2446,
      "自": 2447,
      "至": 2448,
      "致": 2449,
      "臺": 2450,
      "舁": 2451,
      "舅": 2452,
      "興": 2453,
      "舊": 2454,
      "舍": 2455,
      "舐": 2456,
      "舖": 2457,
      "舞": 2458,
      "舣": 2459,
      "舩": 2460,
      "航": 2461,
      "舫": 2462,
      "般": 2463,
      "艮": 2464,
      "良": 2465,
      "色": 2466,
      "艳": 2467,
      "节": 2468,
      "芋": 2469,
      "芝": 2470,
      "芦": 2471,
      "花": 2472,
      "苏": 2473,
      "苑": 2474,
      "若": 2475,
      "英": 2476,
      "茂": 2477,
      "茜": 2478,
      "茨": 2479,
      "茶": 2480,
      "草": 2481,
      "荣": 2482,
      "荷": 2483,
      "莉": 2484,
      "莞": 2485,
      "莨": 2486,
      "莲": 2487,
      "获": 2488,
      "莹": 2489,
      "菜": 2490,
      "菩": 2491,
      "華": 2492,
      "菱": 2493,
      "萄": 2494,
      "营": 2495,
      "萧": 2496,
      "萬": 2497,
      "落": 2498,
      "葉": 2499,
      "著": 2500,
      "葡": 2501,
      "董": 2502,
      "蒋": 2503,
      "蒸": 2504,
      "蓋": 2505,
      "蓟": 2506,
      "蓮": 2507,
      "蔓": 2508,
      "蔚": 2509,
      "蔣": 2510,
      "蕭": 2511,
      "蕴": 2512,
      "薇": 2513,
      "薊": 2514,
      "薔": 2515,
      "薬": 2516,
      "薯": 2517,
      "藍": 2518,
      "藏": 2519,
      "藕": 2520,
      "藤": 2521,
      "蘇": 2522,
      "虑": 2523,
      "號": 2524,
      "虫": 2525,
      "蛋": 2526,
      "蜀": 2527,
      "蝦": 2528,
      "融": 2529,
      "螨": 2530,
      "螳": 2531,
      "螺": 2532,
      "蟲": 2533,
      "血": 2534,
      "衆": 2535,
      "行": 2536,
      "術": 2537,
      "街": 2538,
      "衡": 2539,
      "衣": 2540,
      "表": 2541,
      "裂": 2542,
      "装": 2543,
      "裕": 2544,
      "製": 2545,
      "西": 2546,
      "要": 2547,
      "見": 2548,
      "視": 2549,
      "覧": 2550,
      "親": 2551,
      "観": 2552,
      "覺": 2553,
      "见": 2554,
      "观": 2555,
      "视": 2556,
      "觉": 2557,
      "角": 2558,
      "解": 2559,
      "触": 2560,
      "言": 2561,
      "訃": 2562,
      "訊": 2563,
      "討": 2564,
      "訓": 2565,
      "記": 2566,
      "設": 2567,
      "許": 2568,
      "訳": 2569,
      "詠": 2570,
      "試": 2571,
      "詩": 2572,
      "詰": 2573,
      "話": 2574,
      "詳": 2575,
      "詹": 2576,
      "誓": 2577,
      "語": 2578,
      "說": 2579,
      "説": 2580,
      "読": 2581,
      "調": 2582,
      "談": 2583,
      "請": 2584,
      "論": 2585,
      "諸": 2586,
      "謑": 2587,
      "證": 2588,
      "警": 2589,
      "譯": 2590,
      "護": 2591,
      "讃": 2592,
      "變": 2593,
      "计": 2594,
      "讣": 2595,
      "认": 2596,
      "讨": 2597,
      "让": 2598,
      "议": 2599,
      "讯": 2600,
      "记": 2601,
      "讲": 2602,
      "许": 2603,
      "论": 2604,
      "讼": 2605,
      "设": 2606,
      "证": 2607,
      "评": 2608,
      "识": 2609,
      "诉": 2610,
      "译": 2611,
      "试": 2612,
      "诘": 2613,
      "话": 2614,
      "该": 2615,
      "详": 2616,
      "语": 2617,
      "说": 2618,
      "请": 2619,
      "诺": 2620,
      "课": 2621,
      "调": 2622,
      "谈": 2623,
      "谋": 2624,
      "谢": 2625,
      "谷": 2626,
      "豆": 2627,
      "豊": 2628,
      "豐": 2629,
      "豫": 2630,
      "貌": 2631,
      "負": 2632,
      "財": 2633,
      "貢": 2634,
      "販": 2635,
      "貮": 2636,
      "貰": 2637,
      "貴": 2638,
      "貸": 2639,
      "費": 2640,
      "賀": 2641,
      "資": 2642,
      "賈": 2643,
      "賢": 2644,
      "贊": 2645,
      "贞": 2646,
      "负": 2647,
      "贡": 2648,
      "贤": 2649,
      "货": 2650,
      "质": 2651,
      "贫": 2652,
      "购": 2653,
      "贱": 2654,
      "贳": 2655,
      "贷": 2656,
      "贸": 2657,
      "费": 2658,
      "资": 2659,
      "赌": 2660,
      "赖": 2661,
      "赛": 2662,
      "赞": 2663,
      "赤": 2664,
      "赵": 2665,
      "赶": 2666,
      "起": 2667,
      "超": 2668,
      "越": 2669,
      "趋": 2670,
      "趙": 2671,
      "足": 2672,
      "跆": 2673,
      "跋": 2674,
      "跟": 2675,
      "跨": 2676,
      "路": 2677,
      "跳": 2678,
      "踌": 2679,
      "蹟": 2680,
      "躇": 2681,
      "躊": 2682,
      "躍": 2683,
      "身": 2684,
      "車": 2685,
      "軍": 2686,
      "転": 2687,
      "較": 2688,
      "載": 2689,
      "輪": 2690,
      "车": 2691,
      "转": 2692,
      "轮": 2693,
      "轻": 2694,
      "载": 2695,
      "较": 2696,
      "辑": 2697,
      "辛": 2698,
      "辞": 2699,
      "辭": 2700,
      "辱": 2701,
      "農": 2702,
      "込": 2703,
      "达": 2704,
      "迅": 2705,
      "过": 2706,
      "迎": 2707,
      "运": 2708,
      "近": 2709,
      "返": 2710,
      "还": 2711,
      "这": 2712,
      "进": 2713,
      "远": 2714,
      "连": 2715,
      "迫": 2716,
      "述": 2717,
      "迷": 2718,
      "追": 2719,
      "送": 2720,
      "适": 2721,
      "逃": 2722,
      "逆": 2723,
      "选": 2724,
      "透": 2725,
      "途": 2726,
      "通": 2727,
      "速": 2728,
      "造": 2729,
      "逢": 2730,
      "連": 2731,
      "逸": 2732,
      "遇": 2733,
      "遊": 2734,
      "運": 2735,
      "過": 2736,
      "道": 2737,
      "達": 2738,
      "遗": 2739,
      "遝": 2740,
      "遠": 2741,
      "遣": 2742,
      "適": 2743,
      "遪": 2744,
      "遭": 2745,
      "遲": 2746,
      "遷": 2747,
      "遽": 2748,
      "避": 2749,
      "還": 2750,
      "邊": 2751,
      "邑": 2752,
      "那": 2753,
      "邱": 2754,
      "郎": 2755,
      "郑": 2756,
      "郝": 2757,
      "郡": 2758,
      "部": 2759,
      "郷": 2760,
      "都": 2761,
      "鄂": 2762,
      "鄉": 2763,
      "鄭": 2764,
      "酉": 2765,
      "配": 2766,
      "酎": 2767,
      "酒": 2768,
      "酸": 2769,
      "采": 2770,
      "釉": 2771,
      "里": 2772,
      "重": 2773,
      "野": 2774,
      "量": 2775,
      "金": 2776,
      "釣": 2777,
      "鈍": 2778,
      "鈴": 2779,
      "鉄": 2780,
      "鉋": 2781,
      "銀": 2782,
      "銭": 2783,
      "鋍": 2784,
      "鋑": 2785,
      "鋒": 2786,
      "鋓": 2787,
      "鋖": 2788,
      "鋘": 2789,
      "鋜": 2790,
      "鋝": 2791,
      "鋞": 2792,
      "鋟": 2793,
      "録": 2794,
      "鍋": 2795,
      "鎚": 2796,
      "鏡": 2797,
      "鐵": 2798,
      "针": 2799,
      "钓": 2800,
      "钟": 2801,
      "钢": 2802,
      "钦": 2803,
      "钧": 2804,
      "钱": 2805,
      "铁": 2806,
      "铃": 2807,
      "铭": 2808,
      "银": 2809,
      "链": 2810,
      "销": 2811,
      "锈": 2812,
      "锋": 2813,
      "错": 2814,
      "锦": 2815,
      "键": 2816,
      "镜": 2817,
      "長": 2818,
      "长": 2819,
      "門": 2820,
      "開": 2821,
      "間": 2822,
      "関": 2823,
      "閣": 2824,
      "閥": 2825,
      "閩": 2826,
      "關": 2827,
      "门": 2828,
      "问": 2829,
      "间": 2830,
      "闵": 2831,
      "闻": 2832,
      "闽": 2833,
      "阜": 2834,
      "队": 2835,
      "阪": 2836,
      "防": 2837,
      "阳": 2838,
      "阶": 2839,
      "阻": 2840,
      "阿": 2841,
      "陀": 2842,
      "际": 2843,
      "陈": 2844,
      "降": 2845,
      "限": 2846,
      "院": 2847,
      "除": 2848,
      "险": 2849,
      "陰": 2850,
      "陳": 2851,
      "陵": 2852,
      "陶": 2853,
      "陽": 2854,
      "隆": 2855,
      "隊": 2856,
      "階": 2857,
      "際": 2858,
      "障": 2859,
      "难": 2860,
      "雄": 2861,
      "雅": 2862,
      "集": 2863,
      "雙": 2864,
      "雛": 2865,
      "離": 2866,
      "難": 2867,
      "雨": 2868,
      "雪": 2869,
      "雲": 2870,
      "雷": 2871,
      "電": 2872,
      "需": 2873,
      "霊": 2874,
      "霖": 2875,
      "霜": 2876,
      "露": 2877,
      "青": 2878,
      "静": 2879,
      "非": 2880,
      "靠": 2881,
      "面": 2882,
      "革": 2883,
      "靳": 2884,
      "韓": 2885,
      "音": 2886,
      "韻": 2887,
      "頂": 2888,
      "項": 2889,
      "順": 2890,
      "須": 2891,
      "頑": 2892,
      "領": 2893,
      "頭": 2894,
      "題": 2895,
      "顗": 2896,
      "顯": 2897,
      "页": 2898,
      "顶": 2899,
      "顷": 2900,
      "须": 2901,
      "顾": 2902,
      "预": 2903,
      "颐": 2904,
      "颖": 2905,
      "题": 2906,
      "颜": 2907,
      "额": 2908,
      "風": 2909,
      "风": 2910,
      "飛": 2911,
      "飞": 2912,
      "食": 2913,
      "飯": 2914,
      "飲": 2915,
      "飼": 2916,
      "館": 2917,
      "饮": 2918,
      "饲": 2919,
      "馆": 2920,
      "首": 2921,
      "香": 2922,
      "馬": 2923,
      "駄": 2924,
      "駅": 2925,
      "験": 2926,
      "騙": 2927,
      "騜": 2928,
      "驗": 2929,
      "马": 2930,
      "验": 2931,
      "骨": 2932,
      "髄": 2933,
      "體": 2934,
      "高": 2935,
      "鬼": 2936,
      "魔": 2937,
      "鮨": 2938,
      "鮮": 2939,
      "鯨": 2940,
      "鰀": 2941,
      "鰃": 2942,
      "鰄": 2943,
      "鰈": 2944,
      "鰊": 2945,
      "鰎": 2946,
      "鱲": 2947,
      "鱼": 2948,
      "鲁": 2949,
      "鲞": 2950,
      "鳩": 2951,
      "鳳": 2952,
      "鴻": 2953,
      "鵜": 2954,
      "鷹": 2955,
      "鸡": 2956,
      "鸭": 2957,
      "鸯": 2958,
      "鸳": 2959,
      "鹅": 2960,
      "鹈": 2961,
      "鹤": 2962,
      "鹿": 2963,
      "麗": 2964,
      "麩": 2965,
      "麺": 2966,
      "黃": 2967,
      "黄": 2968,
      "黎": 2969,
      "黒": 2970,
      "黚": 2971,
      "點": 2972,
      "黡": 2973,
      "黨": 2974,
      "黮": 2975,
      "黵": 2976,
      "黷": 2977,
      "鼻": 2978,
      "齋": 2979,
      "齡": 2980,
      "龍": 2981,
      "龙": 2982,
      "ꭰ": 2983,
      "ꭲ": 2984,
      "ꮊ": 2985,
      "": 2986,
      "": 2987,
      "": 2988,
      "": 2989,
      "": 2990,
      "": 2991,
      "": 2992,
      "": 2993,
      "": 2994,
      "": 2995,
      "": 2996,
      "": 2997,
      "": 2998,
      "": 2999,
      "": 3000,
      "": 3001,
      "": 3002,
      "": 3003,
      "": 3004,
      "": 3005,
      "": 3006,
      "": 3007,
      "": 3008,
      "": 3009,
      "": 3010,
      "": 3011,
      "": 3012,
      "": 3013,
      "ﬁ": 3014,
      "ﬂ": 3015,
      "ﷲ": 3016,
      "︰": 3017,
      "ﺍ": 3018,
      "ﺏ": 3019,
      "ﺤ": 3020,
      "ﺩ": 3021,
      "ﻁ": 3022,
      "ﻙ": 3023,
      "ﻫ": 3024,
      "﻿": 3025,
      "！": 3026,
      "＄": 3027,
      "（": 3028,
      "）": 3029,
      "＊": 3030,
      "，": 3031,
      "－": 3032,
      "．": 3033,
      "１": 3034,
      "２": 3035,
      "７": 3036,
      "９": 3037,
      "：": 3038,
      "；": 3039,
      "？": 3040,
      "［": 3041,
      "］": 3042,
      "ｂ": 3043,
      "ｄ": 3044,
      "ｅ": 3045,
      "ｈ": 3046,
      "ｉ": 3047,
      "ｌ": 3048,
      "ｏ": 3049,
      "ｐ": 3050,
      "ｓ": 3051,
      "ｔ": 3052,
      "ｕ": 3053,
      "ｖ": 3054,
      "､": 3055,
      "･": 3056,
      "ｫ": 3057,
      "ｲ": 3058,
      "ｻ": 3059,
      "ｿ": 3060,
      "ﾜ": 3061,
      "ﾟ": 3062,
      "￠": 3063,
      "￡": 3064,
      "￥": 3065,
      "￼": 3066,
      "�": 3067,
      "𐌰": 3068,
      "𐌴": 3069,
      "𐌸": 3070,
      "𐌼": 3071,
      "𐌽": 3072,
      "𐍃": 3073,
      "𐍉": 3074,
      "𠐄": 3075,
      "𢥲": 3076,
      "𧵮": 3077,
      "𲠄": 3078,
      "𲠤": 3079,
      "򮬩": 3080,
      "򮮥": 3081,
      "򲤥": 3082,
      "򲵮": 3083,
      "򴩧": 3084,
      "en": 3085,
      "er": 3086,
      "in": 3087,
      "ch": 3088,
      "th": 3089,
      "an": 3090,
      "on": 3091,
      "es": 3092,
      "un": 3093,
      "is": 3094,
      "at": 3095,
      "it": 3096,
      "the": 3097,
      "or": 3098,
      "ie": 3099,
      "al": 3100,
      "ar": 3101,
      "st": 3102,
      "ur": 3103,
      "re": 3104,
      "der": 3105,
      "as": 3106,
      "ich": 3107,
      "ion": 3108,
      "le": 3109,
      "and": 3110,
      "au": 3111,
      "be": 3112,
      "te": 3113,
      "of": 3114,
      "ge": 3115,
      "ein": 3116,
      "ent": 3117,
      "de": 3118,
      "to": 3119,
      "ro": 3120,
      "und": 3121,
      "die": 3122,
      "ung": 3123,
      "ing": 3124,
      "wi": 3125,
      "se": 3126,
      "om": 3127,
      "ver": 3128,
      "den": 3129,
      "ig": 3130,
      "we": 3131,
      "am": 3132,
      "ll": 3133,
      "ic": 3134,
      "sch": 3135,
      "im": 3136,
      "for": 3137,
      "zu": 3138,
      "ter": 3139,
      "ed": 3140,
      "ab": 3141,
      "ou": 3142,
      "ten": 3143,
      "ra": 3144,
      "ol": 3145,
      "il": 3146,
      "op": 3147,
      "ation": 3148,
      "di": 3149,
      "ber": 3150,
      "ve": 3151,
      "ne": 3152,
      "pro": 3153,
      "ist": 3154,
      "hr": 3155,
      "ct": 3156,
      "gen": 3157,
      "ut": 3158,
      "das": 3159,
      "us": 3160,
      "lich": 3161,
      "em": 3162,
      "all": 3163,
      "no": 3164,
      "um": 3165,
      "so": 3166,
      "mit": 3167,
      "sp": 3168,
      "ke": 3169,
      "isch": 3170,
      "wir": 3171,
      "auf": 3172,
      "com": 3173,
      "icht": 3174,
      "ach": 3175,
      "con": 3176,
      "ier": 3177,
      "that": 3178,
      "wh": 3179,
      "res": 3180,
      "ce": 3181,
      "la": 3182,
      "mo": 3183,
      "he": 3184,
      "are": 3185,
      "des": 3186,
      "aus": 3187,
      "wer": 3188,
      "von": 3189,
      "lo": 3190,
      "ad": 3191,
      "men": 3192,
      "ly": 3193,
      "fur": 3194,
      "me": 3195,
      "ges": 3196,
      "ir": 3197,
      "ma": 3198,
      "ul": 3199,
      "eur": 3200,
      "dies": 3201,
      "our": 3202,
      "af": 3203,
      "par": 3204,
      "ri": 3205,
      "ts": 3206,
      "with": 3207,
      "ta": 3208,
      "eine": 3209,
      "ho": 3210,
      "sie": 3211,
      "kt": 3212,
      "id": 3213,
      "su": 3214,
      "ck": 3215,
      "ere": 3216,
      "ort": 3217,
      "europ": 3218,
      "ess": 3219,
      "po": 3220,
      "ze": 3221,
      "co": 3222,
      "ste": 3223,
      "ind": 3224,
      "this": 3225,
      "ment": 3226,
      "est": 3227,
      "ha": 3228,
      "ru": 3229,
      "da": 3230,
      "qu": 3231,
      "ate": 3232,
      "li": 3233,
      "ex": 3234,
      "vor": 3235,
      "ld": 3236,
      "fe": 3237,
      "sen": 3238,
      "dem": 3239,
      "fa": 3240,
      "her": 3241,
      "ben": 3242,
      "gr": 3243,
      "per": 3244,
      "ungen": 3245,
      "ant": 3246,
      "uber": 3247,
      "pe": 3248,
      "sich": 3249,
      "kon": 3250,
      "00": 3251,
      "ischen": 3252,
      "not": 3253,
      "ser": 3254,
      "nen": 3255,
      "man": 3256,
      "sion": 3257,
      "if": 3258,
      "nicht": 3259,
      "ity": 3260,
      "et": 3261,
      "ive": 3262,
      "wor": 3263,
      "wa": 3264,
      "by": 3265,
      "end": 3266,
      "kom": 3267,
      "auch": 3268,
      "lie": 3269,
      "you": 3270,
      "fer": 3271,
      "was": 3272,
      "ap": 3273,
      "tra": 3274,
      "mis": 3275,
      "do": 3276,
      "tr": 3277,
      "werden": 3278,
      "ag": 3279,
      "inter": 3280,
      "fu": 3281,
      "als": 3282,
      "ust": 3283,
      "sh": 3284,
      "wie": 3285,
      "du": 3286,
      "dass": 3287,
      "pr": 3288,
      "have": 3289,
      "unter": 3290,
      "ht": 3291,
      "ci": 3292,
      "ger": 3293,
      "will": 3294,
      "igen": 3295,
      "tel": 3296,
      "ann": 3297,
      "ther": 3298,
      "hal": 3299,
      "rom": 3300,
      "ander": 3301,
      "port": 3302,
      "war": 3303,
      "iv": 3304,
      "ac": 3305,
      "its": 3306,
      "bes": 3307,
      "ould": 3308,
      "sit": 3309,
      "ib": 3310,
      "hl": 3311,
      "ien": 3312,
      "form": 3313,
      "fin": 3314,
      "which": 3315,
      "pl": 3316,
      "wo": 3317,
      "el": 3318,
      "bo": 3319,
      "from": 3320,
      "ies": 3321,
      "pres": 3322,
      "can": 3323,
      "europe": 3324,
      "ted": 3325,
      "go": 3326,
      "hen": 3327,
      "ang": 3328,
      "bei": 3329,
      "iel": 3330,
      "reg": 3331,
      "mission": 3332,
      "has": 3333,
      "one": 3334,
      "mar": 3335,
      "nach": 3336,
      "lu": 3337,
      "ungs": 3338,
      "schaf": 3339,
      "pol": 3340,
      "ure": 3341,
      "gro": 3342,
      "out": 3343,
      "sind": 3344,
      "fr": 3345,
      "mer": 3346,
      "einer": 3347,
      "je": 3348,
      "dur": 3349,
      "ident": 3350,
      "ik": 3351,
      "able": 3352,
      "ions": 3353,
      "europa": 3354,
      "ih": 3355,
      "pa": 3356,
      "part": 3357,
      "..": 3358,
      "wird": 3359,
      "br": 3360,
      "mus": 3361,
      "wen": 3362,
      "sam": 3363,
      "zen": 3364,
      "aben": 3365,
      "rech": 3366,
      "hat": 3367,
      "up": 3368,
      "lin": 3369,
      "einen": 3370,
      "ische": 3371,
      "fen": 3372,
      "ja": 3373,
      "llen": 3374,
      "vi": 3375,
      "sa": 3376,
      "wur": 3377,
      "stand": 3378,
      "coun": 3379,
      "land": 3380,
      "zur": 3381,
      "oder": 3382,
      "ange": 3383,
      "ple": 3384,
      "son": 3385,
      "ken": 3386,
      "min": 3387,
      "sta": 3388,
      "ise": 3389,
      "but": 3390,
      "fre": 3391,
      "ern": 3392,
      "iten": 3393,
      "str": 3394,
      "mor": 3395,
      "ft": 3396,
      "aten": 3397,
      "also": 3398,
      "uns": 3399,
      "200": 3400,
      "ass": 3401,
      "ament": 3402,
      "stat": 3403,
      "hren": 3404,
      "spe": 3405,
      "hotel": 3406,
      "haben": 3407,
      "european": 3408,
      "sy": 3409,
      "art": 3410,
      "gan": 3411,
      "sel": 3412,
      "ult": 3413,
      "arbe": 3414,
      "alle": 3415,
      "hmen": 3416,
      "ally": 3417,
      "ige": 3418,
      "there": 3419,
      "nation": 3420,
      "ard": 3421,
      "vo": 3422,
      "ction": 3423,
      "pre": 3424,
      "bu": 3425,
      "lichen": 3426,
      "ice": 3427,
      "na": 3428,
      "wel": 3429,
      "dar": 3430,
      "very": 3431,
      "durch": 3432,
      "rat": 3433,
      "ations": 3434,
      "ers": 3435,
      "produ": 3436,
      "pt": 3437,
      "tre": 3438,
      "ous": 3439,
      "che": 3440,
      "bar": 3441,
      "tim": 3442,
      "ans": 3443,
      "ated": 3444,
      "weit": 3445,
      "ip": 3446,
      "dis": 3447,
      "hand": 3448,
      "age": 3449,
      "ill": 3450,
      "sten": 3451,
      "king": 3452,
      "iz": 3453,
      "ob": 3454,
      "schaft": 3455,
      "diese": 3456,
      "union": 3457,
      "bere": 3458,
      "your": 3459,
      "ieren": 3460,
      "national": 3461,
      "ble": 3462,
      "gu": 3463,
      "wn": 3464,
      "leg": 3465,
      "pla": 3466,
      "fo": 3467,
      "rit": 3468,
      "ear": 3469,
      "ia": 3470,
      "mon": 3471,
      "ight": 3472,
      "ding": 3473,
      "kann": 3474,
      "cre": 3475,
      "einem": 3476,
      "set": 3477,
      "ial": 3478,
      "ank": 3479,
      "cess": 3480,
      "iert": 3481,
      "utz": 3482,
      "vel": 3483,
      "19": 3484,
      "od": 3485,
      "more": 3486,
      "ish": 3487,
      "teil": 3488,
      "tet": 3489,
      "off": 3490,
      "keit": 3491,
      "herr": 3492,
      "inst": 3493,
      "stem": 3494,
      "lic": 3495,
      "ner": 3496,
      "polit": 3497,
      "other": 3498,
      "hin": 3499,
      "fra": 3500,
      "use": 3501,
      "gesch": 3502,
      "ba": 3503,
      "konnen": 3504,
      "ical": 3505,
      "igh": 3506,
      "ign": 3507,
      "net": 3508,
      "og": 3509,
      "zeit": 3510,
      "ance": 3511,
      "wenn": 3512,
      "mr": 3513,
      "new": 3514,
      "ite": 3515,
      "liche": 3516,
      "system": 3517,
      "commission": 3518,
      "work": 3519,
      "ome": 3520,
      "cent": 3521,
      "ue": 3522,
      "bet": 3523,
      "ary": 3524,
      "sol": 3525,
      "ded": 3526,
      "zum": 3527,
      "ko": 3528,
      "ug": 3529,
      "would": 3530,
      "tro": 3531,
      "eu": 3532,
      "ef": 3533,
      "ember": 3534,
      "their": 3535,
      "gem": 3536,
      "now": 3537,
      "gre": 3538,
      "pos": 3539,
      "ord": 3540,
      "geb": 3541,
      "ihre": 3542,
      "serv": 3543,
      "inform": 3544,
      "been": 3545,
      "fol": 3546,
      "nur": 3547,
      "ide": 3548,
      "ition": 3549,
      "kl": 3550,
      "ese": 3551,
      "dern": 3552,
      "heit": 3553,
      "ins": 3554,
      "cial": 3555,
      "vie": 3556,
      "any": 3557,
      "ys": 3558,
      "chen": 3559,
      "ine": 3560,
      "wurde": 3561,
      "ater": 3562,
      "unser": 3563,
      "ven": 3564,
      "arbeit": 3565,
      "ile": 3566,
      "gel": 3567,
      "pu": 3568,
      "tri": 3569,
      "they": 3570,
      "mehr": 3571,
      "uss": 3572,
      "groß": 3573,
      "dieser": 3574,
      "hn": 3575,
      "under": 3576,
      "alt": 3577,
      "aber": 3578,
      "za": 3579,
      "ase": 3580,
      "ihr": 3581,
      "los": 3582,
      "glich": 3583,
      "should": 3584,
      "member": 3585,
      "gegen": 3586,
      "who": 3587,
      "fir": 3588,
      "ast": 3589,
      "europaischen": 3590,
      "imm": 3591,
      "noch": 3592,
      "pras": 3593,
      "ak": 3594,
      "gram": 3595,
      "fall": 3596,
      "best": 3597,
      "ces": 3598,
      "grund": 3599,
      "atz": 3600,
      "immer": 3601,
      "ty": 3602,
      "gt": 3603,
      "ments": 3604,
      "kommission": 3605,
      "vis": 3606,
      "ierung": 3607,
      "dire": 3608,
      "ong": 3609,
      "must": 3610,
      "like": 3611,
      "vol": 3612,
      "schen": 3613,
      "proble": 3614,
      "ents": 3615,
      "bur": 3616,
      "pp": 3617,
      "ktion": 3618,
      "itat": 3619,
      "nat": 3620,
      "bil": 3621,
      "dam": 3622,
      "stell": 3623,
      "these": 3624,
      "pri": 3625,
      "cl": 3626,
      "cur": 3627,
      "ph": 3628,
      "20": 3629,
      "reich": 3630,
      "time": 3631,
      "chn": 3632,
      "...": 3633,
      "program": 3634,
      "such": 3635,
      "zt": 3636,
      "daß": 3637,
      "nis": 3638,
      "os": 3639,
      "act": 3640,
      "only": 3641,
      "year": 3642,
      "ds": 3643,
      "person": 3644,
      "ok": 3645,
      "sein": 3646,
      "fore": 3647,
      "soll": 3648,
      "president": 3649,
      "richt": 3650,
      "ian": 3651,
      "fuhr": 3652,
      "ow": 3653,
      "ities": 3654,
      "sib": 3655,
      "let": 3656,
      "ire": 3657,
      "mu": 3658,
      "some": 3659,
      "zw": 3660,
      "cor": 3661,
      "information": 3662,
      "get": 3663,
      "jahr": 3664,
      "nam": 3665,
      "prasident": 3666,
      "ms": 3667,
      "mal": 3668,
      "techn": 3669,
      "clu": 3670,
      "assen": 3671,
      "cy": 3672,
      "glie": 3673,
      "about": 3674,
      "ution": 3675,
      "welt": 3676,
      "ied": 3677,
      "my": 3678,
      "bas": 3679,
      "what": 3680,
      "bis": 3681,
      "kommen": 3682,
      "leich": 3683,
      "cons": 3684,
      "viel": 3685,
      "sehr": 3686,
      "ute": 3687,
      "star": 3688,
      "sicher": 3689,
      "day": 3690,
      "verb": 3691,
      "10": 3692,
      "pf": 3693,
      "tur": 3694,
      "ced": 3695,
      "cts": 3696,
      "mun": 3697,
      "maß": 3698,
      "over": 3699,
      "olog": 3700,
      "ause": 3701,
      "cil": 3702,
      "mitglie": 3703,
      "wahr": 3704,
      "zie": 3705,
      "halt": 3706,
      "moglich": 3707,
      "international": 3708,
      "ga": 3709,
      "blic": 3710,
      "int": 3711,
      "room": 3712,
      "qual": 3713,
      "weiter": 3714,
      "moch": 3715,
      "eng": 3716,
      "sub": 3717,
      "entwi": 3718,
      "tain": 3719,
      "hier": 3720,
      "nehmen": 3721,
      "parl": 3722,
      "need": 3723,
      ").": 3724,
      "mussen": 3725,
      "finan": 3726,
      "comp": 3727,
      "posit": 3728,
      "velop": 3729,
      "way": 3730,
      "forder": 3731,
      "mach": 3732,
      "bal": 3733,
      "develop": 3734,
      "mat": 3735,
      "zwe": 3736,
      "parlament": 3737,
      "when": 3738,
      "deut": 3739,
      "neu": 3740,
      "legen": 3741,
      "gar": 3742,
      "gemein": 3743,
      "dif": 3744,
      "just": 3745,
      "ens": 3746,
      "det": 3747,
      "zahl": 3748,
      "ket": 3749,
      "med": 3750,
      "most": 3751,
      "cht": 3752,
      "ular": 3753,
      "well": 3754,
      "many": 3755,
      "ele": 3756,
      "liament": 3757,
      "parliament": 3758,
      "ware": 3759,
      "stru": 3760,
      "vent": 3761,
      "lage": 3762,
      "xt": 3763,
      "hol": 3764,
      "dr": 3765,
      "ors": 3766,
      "ital": 3767,
      "mittel": 3768,
      "how": 3769,
      "stu": 3770,
      "wirt": 3771,
      "beg": 3772,
      "oper": 3773,
      "pra": 3774,
      "eines": 3775,
      "fun": 3776,
      "ose": 3777,
      "peop": 3778,
      "zusam": 3779,
      "import": 3780,
      "ibt": 3781,
      "fl": 3782,
      "ctive": 3783,
      "zusammen": 3784,
      "fort": 3785,
      "rel": 3786,
      "sche": 3787,
      "diesem": 3788,
      "car": 3789,
      "cle": 3790,
      "kr": 3791,
      "iger": 3792,
      "states": 3793,
      "igkeit": 3794,
      "first": 3795,
      "tran": 3796,
      "people": 3797,
      "wicht": 3798,
      "igt": 3799,
      "ster": 3800,
      "unden": 3801,
      "ks": 3802,
      "kun": 3803,
      "loc": 3804,
      "staaten": 3805,
      "onder": 3806,
      "val": 3807,
      "ruck": 3808,
      "organ": 3809,
      "gleich": 3810,
      "besch": 3811,
      "dieses": 3812,
      "thing": 3813,
      "lau": 3814,
      "fahr": 3815,
      "ließ": 3816,
      "kte": 3817,
      "into": 3818,
      "halten": 3819,
      "cause": 3820,
      "come": 3821,
      "world": 3822,
      "sup": 3823,
      "were": 3824,
      "them": 3825,
      "iti": 3826,
      "geben": 3827,
      "ot": 3828,
      "ific": 3829,
      "bus": 3830,
      "lle": 3831,
      "ateg": 3832,
      "erg": 3833,
      "les": 3834,
      "view": 3835,
      "sed": 3836,
      "gh": 3837,
      "ual": 3838,
      "region": 3839,
      "iven": 3840,
      "ility": 3841,
      "col": 3842,
      "ices": 3843,
      "va": 3844,
      "lung": 3845,
      "cour": 3846,
      "his": 3847,
      "report": 3848,
      "ihnen": 3849,
      "than": 3850,
      "sicht": 3851,
      "auß": 3852,
      "offer": 3853,
      "demo": 3854,
      "),": 3855,
      "mochte": 3856,
      "ures": 3857,
      "mitglied": 3858,
      "jo": 3859,
      "tell": 3860,
      "stellen": 3861,
      "frau": 3862,
      "ale": 3863,
      "dition": 3864,
      "lander": 3865,
      "web": 3866,
      "bereich": 3867,
      "bie": 3868,
      "econ": 3869,
      "sk": 3870,
      "tat": 3871,
      "haus": 3872,
      "tin": 3873,
      "econom": 3874,
      "bin": 3875,
      "read": 3876,
      "vom": 3877,
      "ative": 3878,
      "pon": 3879,
      "bericht": 3880,
      "weise": 3881,
      "unsere": 3882,
      "hor": 3883,
      "vorsch": 3884,
      "ving": 3885,
      "isten": 3886,
      "polic": 3887,
      "see": 3888,
      "ry": 3889,
      "ating": 3890,
      "tries": 3891,
      "order": 3892,
      "dien": 3893,
      "por": 3894,
      "aga": 3895,
      "schließ": 3896,
      "zug": 3897,
      "sin": 3898,
      "here": 3899,
      "zwischen": 3900,
      "hel": 3901,
      "agre": 3902,
      "proje": 3903,
      "ting": 3904,
      "countries": 3905,
      "gra": 3906,
      "gener": 3907,
      "bre": 3908,
      "unterst": 3909,
      "where": 3910,
      "besonder": 3911,
      "partic": 3912,
      "full": 3913,
      "sof": 3914,
      "ory": 3915,
      "deb": 3916,
      "rif": 3917,
      "ca": 3918,
      "natur": 3919,
      "emp": 3920,
      "nung": 3921,
      "roug": 3922,
      "entwick": 3923,
      "pun": 3924,
      "ziel": 3925,
      "situ": 3926,
      "ence": 3927,
      "council": 3928,
      "iden": 3929,
      "tern": 3930,
      "ieden": 3931,
      "ame": 3932,
      "menschen": 3933,
      "zent": 3934,
      "vers": 3935,
      "nor": 3936,
      "akt": 3937,
      "wis": 3938,
      "tem": 3939,
      "make": 3940,
      "inclu": 3941,
      "gibt": 3942,
      "leben": 3943,
      "fam": 3944,
      "halb": 3945,
      "take": 3946,
      "sowie": 3947,
      "sible": 3948,
      "fic": 3949,
      "real": 3950,
      "ved": 3951,
      "because": 3952,
      "after": 3953,
      "may": 3954,
      "handel": 3955,
      "important": 3956,
      "air": 3957,
      "cer": 3958,
      "main": 3959,
      "lar": 3960,
      "versch": 3961,
      "char": 3962,
      "fest": 3963,
      "kur": 3964,
      "ris": 3965,
      "lang": 3966,
      "ween": 3967,
      "group": 3968,
      "support": 3969,
      "fact": 3970,
      "high": 3971,
      "etzt": 3972,
      "between": 3973,
      "led": 3974,
      "stad": 3975,
      "tal": 3976,
      "wend": 3977,
      "ves": 3978,
      "indust": 3979,
      "line": 3980,
      "requ": 3981,
      "commun": 3982,
      "kam": 3983,
      "ights": 3984,
      "provi": 3985,
      "wirk": 3986,
      "every": 3987,
      "energ": 3988,
      "voll": 3989,
      "wirtschaft": 3990,
      "kel": 3991,
      "bau": 3992,
      "two": 3993,
      "even": 3994,
      "recht": 3995,
      "good": 3996,
      "wurden": 3997,
      "ress": 3998,
      "wieder": 3999,
      "flu": 4000,
      "ps": 4001,
      "europaische": 4002,
      "wahl": 4003,
      "tent": 4004,
      "igung": 4005,
      "vern": 4006,
      "service": 4007,
      "dan": 4008,
      "commit": 4009,
      "instit": 4010,
      "tt": 4011,
      "wes": 4012,
      "play": 4013,
      "ker": 4014,
      "made": 4015,
      "rough": 4016,
      "transp": 4017,
      "same": 4018,
      "inv": 4019,
      "public": 4020,
      "num": 4021,
      "ler": 4022,
      "ihrer": 4023,
      "io": 4024,
      "jed": 4025,
      "muss": 4026,
      "fach": 4027,
      "then": 4028,
      "satz": 4029,
      "try": 4030,
      "199": 4031,
      "ister": 4032,
      "ful": 4033,
      "last": 4034,
      "ious": 4035,
      "keine": 4036,
      "dat": 4037,
      "far": 4038,
      "rei": 4039,
      "market": 4040,
      "bring": 4041,
      "que": 4042,
      "site": 4043,
      "damit": 4044,
      "lan": 4045,
      "cted": 4046,
      "uni": 4047,
      "through": 4048,
      "dec": 4049,
      "right": 4050,
      "zeich": 4051,
      "fil": 4052,
      "zial": 4053,
      "prof": 4054,
      "wort": 4055,
      "those": 4056,
      "wert": 4057,
      "vir": 4058,
      "finden": 4059,
      "policy": 4060,
      "dann": 4061,
      "effe": 4062,
      "eben": 4063,
      "ina": 4064,
      "had": 4065,
      "ren": 4066,
      "ement": 4067,
      "hum": 4068,
      "plan": 4069,
      "gs": 4070,
      "wohl": 4071,
      "own": 4072,
      "schon": 4073,
      "ider": 4074,
      "sim": 4075,
      "years": 4076,
      "amer": 4077,
      "clear": 4078,
      "beste": 4079,
      "zimmer": 4080,
      "anderen": 4081,
      "bel": 4082,
      "issu": 4083,
      "aut": 4084,
      "ende": 4085,
      "text": 4086,
      "being": 4087,
      "mitgliedstaaten": 4088,
      "sc": 4089,
      "kle": 4090,
      "cond": 4091,
      "außer": 4092,
      "frage": 4093,
      "bst": 4094,
      "verfu": 4095,
      "howe": 4096,
      "wach": 4097,
      "var": 4098,
      "ient": 4099,
      "respon": 4100,
      "fund": 4101,
      "know": 4102,
      "sach": 4103,
      "cept": 4104,
      "spiel": 4105,
      "strateg": 4106,
      "sprech": 4107,
      "ischer": 4108,
      "utzen": 4109,
      "15": 4110,
      "unternehmen": 4111,
      "brauch": 4112,
      "kol": 4113,
      "stra": 4114,
      "problem": 4115,
      "differ": 4116,
      "allen": 4117,
      "find": 4118,
      "offen": 4119,
      "famil": 4120,
      "gese": 4121,
      "zentr": 4122,
      "auto": 4123,
      "burger": 4124,
      "aum": 4125,
      "aller": 4126,
      "keiten": 4127,
      "druck": 4128,
      "ited": 4129,
      "exper": 4130,
      "however": 4131,
      "stadt": 4132,
      "inn": 4133,
      "organis": 4134,
      "sur": 4135,
      "zwei": 4136,
      "appro": 4137,
      "del": 4138,
      "weil": 4139,
      "govern": 4140,
      "hne": 4141,
      "place": 4142,
      "tee": 4143,
      "rent": 4144,
      "ives": 4145,
      "lish": 4146,
      "har": 4147,
      "technolog": 4148,
      "spa": 4149,
      "less": 4150,
      "klar": 4151,
      "konn": 4152,
      "belie": 4153,
      "alth": 4154,
      "ausge": 4155,
      "soft": 4156,
      "fahren": 4157,
      "ument": 4158,
      "economic": 4159,
      "present": 4160,
      "diesen": 4161,
      "selbst": 4162,
      "quest": 4163,
      "ultur": 4164,
      "kre": 4165,
      "pen": 4166,
      "cap": 4167,
      "free": 4168,
      "stehen": 4169,
      "trans": 4170,
      "bit": 4171,
      "particular": 4172,
      "zung": 4173,
      "human": 4174,
      "ship": 4175,
      "hau": 4176,
      "schl": 4177,
      "tour": 4178,
      "dist": 4179,
      "open": 4180,
      "mill": 4181,
      "nahmen": 4182,
      "politik": 4183,
      "fle": 4184,
      "situation": 4185,
      "tion": 4186,
      "uck": 4187,
      "propos": 4188,
      "position": 4189,
      "prote": 4190,
      "och": 4191,
      "si": 4192,
      "12": 4193,
      "hang": 4194,
      "aft": 4195,
      "mich": 4196,
      "sm": 4197,
      "area": 4198,
      "vid": 4199,
      "heute": 4200,
      "ings": 4201,
      "process": 4202,
      "wissen": 4203,
      "lag": 4204,
      "development": 4205,
      "spra": 4206,
      "miss": 4207,
      "offent": 4208,
      "seine": 4209,
      "rights": 4210,
      "dy": 4211,
      "invest": 4212,
      "glo": 4213,
      "innen": 4214,
      "kra": 4215,
      "great": 4216,
      "30": 4217,
      "isen": 4218,
      "tag": 4219,
      "ough": 4220,
      "put": 4221,
      "wal": 4222,
      "bild": 4223,
      "ihren": 4224,
      "possible": 4225,
      "therefore": 4226,
      "stre": 4227,
      "seit": 4228,
      "markt": 4229,
      "ters": 4230,
      "down": 4231,
      "priv": 4232,
      "clo": 4233,
      "back": 4234,
      "sign": 4235,
      "verein": 4236,
      "18": 4237,
      "lagen": 4238,
      "indi": 4239,
      "arch": 4240,
      "ouse": 4241,
      "point": 4242,
      "unserer": 4243,
      "iness": 4244,
      "ka": 4245,
      "comple": 4246,
      "zer": 4247,
      "hist": 4248,
      "lassen": 4249,
      "mt": 4250,
      "eigen": 4251,
      "chan": 4252,
      "aussch": 4253,
      "daten": 4254,
      "sor": 4255,
      "design": 4256,
      "social": 4257,
      "entwicklung": 4258,
      "enz": 4259,
      "standard": 4260,
      "ganz": 4261,
      "jedoch": 4262,
      "habe": 4263,
      "programm": 4264,
      "used": 4265,
      "conc": 4266,
      "inte": 4267,
      "ju": 4268,
      "press": 4269,
      "neue": 4270,
      "leist": 4271,
      "bro": 4272,
      "cas": 4273,
      "internet": 4274,
      "services": 4275,
      "pal": 4276,
      "oc": 4277,
      "rechts": 4278,
      "lat": 4279,
      "access": 4280,
      "ink": 4281,
      "sehen": 4282,
      "contin": 4283,
      "sondern": 4284,
      "fuhren": 4285,
      "incre": 4286,
      "hoch": 4287,
      "000": 4288,
      "ates": 4289,
      "change": 4290,
      "business": 4291,
      "pat": 4292,
      "self": 4293,
      "operation": 4294,
      "50": 4295,
      "taur": 4296,
      "concern": 4297,
      "ium": 4298,
      "lis": 4299,
      "gehen": 4300,
      "nt": 4301,
      "trag": 4302,
      "folgen": 4303,
      "ohne": 4304,
      "level": 4305,
      "ommen": 4306,
      "within": 4307,
      "plic": 4308,
      "mil": 4309,
      "integr": 4310,
      "both": 4311,
      "prin": 4312,
      "punkt": 4313,
      "restaur": 4314,
      "could": 4315,
      "direct": 4316,
      "tens": 4317,
      "vail": 4318,
      "itt": 4319,
      "does": 4320,
      "fru": 4321,
      "political": 4322,
      "schutz": 4323,
      "buil": 4324,
      "unterstutz": 4325,
      "ep": 4326,
      "euro": 4327,
      "want": 4328,
      "global": 4329,
      "gestell": 4330,
      "number": 4331,
      "hil": 4332,
      "ism": 4333,
      "bed": 4334,
      "entsche": 4335,
      "say": 4336,
      "rie": 4337,
      "tor": 4338,
      "lauf": 4339,
      "dra": 4340,
      "sozial": 4341,
      "stellung": 4342,
      "ests": 4343,
      "antra": 4344,
      "weg": 4345,
      "kor": 4346,
      "manage": 4347,
      "power": 4348,
      "acht": 4349,
      "hme": 4350,
      "ss": 4351,
      "bereits": 4352,
      "wichtig": 4353,
      "house": 4354,
      "kunft": 4355,
      "key": 4356,
      "city": 4357,
      "sollte": 4358,
      "kar": 4359,
      "avail": 4360,
      "bs": 4361,
      "esser": 4362,
      "exam": 4363,
      "country": 4364,
      "ready": 4365,
      "gut": 4366,
      "much": 4367,
      "gew": 4368,
      "ban": 4369,
      "against": 4370,
      "waren": 4371,
      "tru": 4372,
      "inner": 4373,
      "enth": 4374,
      "viele": 4375,
      "licher": 4376,
      "large": 4377,
      "une": 4378,
      "reichen": 4379,
      "angen": 4380,
      "gest": 4381,
      "llow": 4382,
      "ics": 4383,
      "van": 4384,
      "ability": 4385,
      "ason": 4386,
      "san": 4387,
      "dazu": 4388,
      "maßnahmen": 4389,
      "letz": 4390,
      "andere": 4391,
      "zo": 4392,
      "loy": 4393,
      "today": 4394,
      "still": 4395,
      "rooms": 4396,
      "without": 4397,
      "quality": 4398,
      "isp": 4399,
      "gesam": 4400,
      "neuen": 4401,
      "fut": 4402,
      "long": 4403,
      "ants": 4404,
      "unt": 4405,
      "thre": 4406,
      "cust": 4407,
      "ierte": 4408,
      "kes": 4409,
      "staat": 4410,
      "jahren": 4411,
      "fuhrt": 4412,
      "denn": 4413,
      "bank": 4414,
      "sollten": 4415,
      "iß": 4416,
      "ctions": 4417,
      "viron": 4418,
      "contro": 4419,
      "environ": 4420,
      "lon": 4421,
      "kosten": 4422,
      "pet": 4423,
      "custom": 4424,
      "different": 4425,
      "fast": 4426,
      "antwort": 4427,
      "fragen": 4428,
      "alen": 4429,
      "software": 4430,
      "ulation": 4431,
      "essen": 4432,
      "red": 4433,
      "low": 4434,
      "frei": 4435,
      "since": 4436,
      "consider": 4437,
      "liegt": 4438,
      "date": 4439,
      "state": 4440,
      "denen": 4441,
      "ierten": 4442,
      "bestimm": 4443,
      "regard": 4444,
      "kehr": 4445,
      "meas": 4446,
      "add": 4447,
      "turn": 4448,
      "fehl": 4449,
      "pect": 4450,
      "ric": 4451,
      "hre": 4452,
      "stimm": 4453,
      "initi": 4454,
      "saf": 4455,
      "wind": 4456,
      "11": 4457,
      "obje": 4458,
      "law": 4459,
      "beisp": 4460,
      "doch": 4461,
      "rich": 4462,
      "mir": 4463,
      "treat": 4464,
      "disc": 4465,
      "before": 4466,
      "verschieden": 4467,
      "machen": 4468,
      "kauf": 4469,
      "itions": 4470,
      "committee": 4471,
      "jetzt": 4472,
      "rechte": 4473,
      "version": 4474,
      "special": 4475,
      "falls": 4476,
      "environment": 4477,
      "rahmen": 4478,
      "old": 4479,
      "during": 4480,
      "auth": 4481,
      "ec": 4482,
      "bud": 4483,
      "statt": 4484,
      "regel": 4485,
      "kten": 4486,
      "einige": 4487,
      "don": 4488,
      "las": 4489,
      "ton": 4490,
      "ktur": 4491,
      "beit": 4492,
      "ti": 4493,
      "data": 4494,
      "available": 4495,
      "ask": 4496,
      "redu": 4497,
      "ness": 4498,
      "enter": 4499,
      "schafts": 4500,
      "help": 4501,
      "lim": 4502,
      "amend": 4503,
      "current": 4504,
      "ways": 4505,
      "partner": 4506,
      "bietet": 4507,
      "secur": 4508,
      "ras": 4509,
      "iet": 4510,
      "einfach": 4511,
      "pur": 4512,
      "finanz": 4513,
      "too": 4514,
      "fel": 4515,
      "ppor": 4516,
      "meine": 4517,
      "mb": 4518,
      "require": 4519,
      "setzen": 4520,
      "kin": 4521,
      "ists": 4522,
      "alter": 4523,
      "wahrend": 4524,
      "ope": 4525,
      "utions": 4526,
      "besondere": 4527,
      "certain": 4528,
      "schrit": 4529,
      "erfol": 4530,
      "course": 4531,
      "geht": 4532,
      "bereit": 4533,
      "russ": 4534,
      "inde": 4535,
      "million": 4536,
      "employ": 4537,
      "mein": 4538,
      "pass": 4539,
      "gang": 4540,
      "cho": 4541,
      "cing": 4542,
      "nun": 4543,
      "bt": 4544,
      "future": 4545,
      "gent": 4546,
      "landern": 4547,
      "spec": 4548,
      "uer": 4549,
      "findet": 4550,
      "berich": 4551,
      "zel": 4552,
      "further": 4553,
      "16": 4554,
      "ku": 4555,
      "jor": 4556,
      "sagen": 4557,
      "mas": 4558,
      "democ": 4559,
      "thank": 4560,
      "already": 4561,
      "gung": 4562,
      "app": 4563,
      "informationen": 4564,
      "zeug": 4565,
      "products": 4566,
      "darauf": 4567,
      "individ": 4568,
      "gru": 4569,
      "dafur": 4570,
      "uch": 4571,
      "ick": 4572,
      "believe": 4573,
      "licht": 4574,
      "anz": 4575,
      "decis": 4576,
      "schne": 4577,
      "beispiel": 4578,
      "pack": 4579,
      "seiner": 4580,
      "case": 4581,
      "systems": 4582,
      "seite": 4583,
      "uten": 4584,
      "question": 4585,
      "dienst": 4586,
      "legal": 4587,
      "minister": 4588,
      "gestellt": 4589,
      "think": 4590,
      "fair": 4591,
      "ron": 4592,
      "sou": 4593,
      "ator": 4594,
      "linie": 4595,
      "trie": 4596,
      "geschaf": 4597,
      "government": 4598,
      "financial": 4599,
      "each": 4600,
      "top": 4601,
      "krat": 4602,
      "equ": 4603,
      "elle": 4604,
      "ade": 4605,
      "]]": 4606,
      "unde": 4607,
      "14": 4608,
      "small": 4609,
      "tele": 4610,
      "chil": 4611,
      "mater": 4612,
      "ran": 4613,
      "programme": 4614,
      "[[": 4615,
      "ersten": 4616,
      "institution": 4617,
      "sprechen": 4618,
      "suc": 4619,
      "sicherheit": 4620,
      "sum": 4621,
      "community": 4622,
      "2009": 4623,
      "gesell": 4624,
      "hof": 4625,
      "tun": 4626,
      "cken": 4627,
      "omen": 4628,
      "sto": 4629,
      "follow": 4630,
      "kunden": 4631,
      "while": 4632,
      "fri": 4633,
      "instr": 4634,
      "imple": 4635,
      "ppen": 4636,
      "nie": 4637,
      "exp": 4638,
      "ession": 4639,
      "abge": 4640,
      "stor": 4641,
      "17": 4642,
      "pay": 4643,
      "hm": 4644,
      "colle": 4645,
      "impro": 4646,
      "ages": 4647,
      "cannot": 4648,
      "eas": 4649,
      "beding": 4650,
      "nisse": 4651,
      "ically": 4652,
      "anal": 4653,
      "life": 4654,
      "isl": 4655,
      "meet": 4656,
      "ßen": 4657,
      "ctor": 4658,
      "refer": 4659,
      "start": 4660,
      "modern": 4661,
      "daher": 4662,
      "wohn": 4663,
      "security": 4664,
      "ration": 4665,
      "stim": 4666,
      "cam": 4667,
      "agreement": 4668,
      "common": 4669,
      "citi": 4670,
      "defin": 4671,
      "offers": 4672,
      "zuruck": 4673,
      "citizen": 4674,
      "log": 4675,
      "fon": 4676,
      "arbeits": 4677,
      "blick": 4678,
      "13": 4679,
      "general": 4680,
      "allow": 4681,
      "management": 4682,
      "resol": 4683,
      "raum": 4684,
      "ismus": 4685,
      "vention": 4686,
      "iter": 4687,
      "dom": 4688,
      "gemeinsam": 4689,
      "sing": 4690,
      "tradition": 4691,
      "ately": 4692,
      "lossen": 4693,
      "arbeiten": 4694,
      "liegen": 4695,
      "ix": 4696,
      "applic": 4697,
      "cost": 4698,
      "geset": 4699,
      "funktion": 4700,
      "second": 4701,
      "tes": 4702,
      "bon": 4703,
      "sal": 4704,
      "major": 4705,
      "show": 4706,
      "reason": 4707,
      "members": 4708,
      "fully": 4709,
      "hig": 4710,
      "commissioner": 4711,
      "author": 4712,
      "ime": 4713,
      "pop": 4714,
      "experien": 4715,
      "nahme": 4716,
      "nov": 4717,
      "herrn": 4718,
      "call": 4719,
      "imin": 4720,
      "dabei": 4721,
      "lea": 4722,
      "company": 4723,
      "bewer": 4724,
      "met": 4725,
      "dig": 4726,
      "klein": 4727,
      "haupt": 4728,
      "necess": 4729,
      "mult": 4730,
      "ungsantra": 4731,
      "som": 4732,
      "based": 4733,
      "pru": 4734,
      "kommiss": 4735,
      "transport": 4736,
      "demokrat": 4737,
      "ged": 4738,
      "bezie": 4739,
      "ually": 4740,
      "personal": 4741,
      "name": 4742,
      "ward": 4743,
      "conf": 4744,
      "span": 4745,
      "konnte": 4746,
      "jahre": 4747,
      "train": 4748,
      "issue": 4749,
      "beru": 4750,
      "energy": 4751,
      "ror": 4752,
      "verkehr": 4753,
      "hatte": 4754,
      "fas": 4755,
      "half": 4756,
      "cell": 4757,
      "struct": 4758,
      "ily": 4759,
      "bot": 4760,
      "ationen": 4761,
      "sat": 4762,
      "tar": 4763,
      "dio": 4764,
      "reform": 4765,
      "activ": 4766,
      "said": 4767,
      "eig": 4768,
      "ral": 4769,
      "ordnung": 4770,
      "page": 4771,
      "allem": 4772,
      "mut": 4773,
      "heiten": 4774,
      "setzung": 4775,
      "park": 4776,
      "including": 4777,
      "count": 4778,
      "nutz": 4779,
      "achie": 4780,
      "macht": 4781,
      "cal": 4782,
      "glau": 4783,
      "ktor": 4784,
      "action": 4785,
      "wollen": 4786,
      "health": 4787,
      "example": 4788,
      "means": 4789,
      "gren": 4790,
      "histor": 4791,
      "debate": 4792,
      "vision": 4793,
      "next": 4794,
      "isierung": 4795,
      "kommissar": 4796,
      "website": 4797,
      "wun": 4798,
      "proposal": 4799,
      "alten": 4800,
      "oking": 4801,
      "cks": 4802,
      "stellt": 4803,
      "wasser": 4804,
      "steht": 4805,
      "seiten": 4806,
      "look": 4807,
      "25": 4808,
      "schul": 4809,
      "why": 4810,
      "gn": 4811,
      "proz": 4812,
      "bi": 4813,
      "erst": 4814,
      "cro": 4815,
      "adop": 4816,
      "basis": 4817,
      "ckel": 4818,
      "three": 4819,
      "worden": 4820,
      "daruber": 4821,
      "lass": 4822,
      "home": 4823,
      "prior": 4824,
      "conta": 4825,
      "apart": 4826,
      "beim": 4827,
      "mad": 4828,
      "unseren": 4829,
      "insbesondere": 4830,
      "ised": 4831,
      "ont": 4832,
      "heits": 4833,
      "she": 4834,
      "werk": 4835,
      "budget": 4836,
      "verfahren": 4837,
      "stay": 4838,
      "shop": 4839,
      "tragen": 4840,
      "umwelt": 4841,
      "whe": 4842,
      "innov": 4843,
      "qualitat": 4844,
      "deshalb": 4845,
      "result": 4846,
      "einzel": 4847,
      "tage": 4848,
      "abil": 4849,
      "centre": 4850,
      "24": 4851,
      "wand": 4852,
      "lichkeit": 4853,
      "plat": 4854,
      "schein": 4855,
      "mail": 4856,
      "taken": 4857,
      "control": 4858,
      "buch": 4859,
      "kontro": 4860,
      "pub": 4861,
      "fung": 4862,
      "große": 4863,
      "grow": 4864,
      "team": 4865,
      "addition": 4866,
      "test": 4867,
      "hu": 4868,
      "tail": 4869,
      "fuhrung": 4870,
      "gress": 4871,
      "problems": 4872,
      "online": 4873,
      "verstand": 4874,
      "ussel": 4875,
      "post": 4876,
      "ausschuss": 4877,
      "etwas": 4878,
      "gangen": 4879,
      "fang": 4880,
      "located": 4881,
      "vier": 4882,
      "using": 4883,
      "specific": 4884,
      "cover": 4885,
      "rates": 4886,
      "ized": 4887,
      "bringen": 4888,
      "legt": 4889,
      "agen": 4890,
      "ird": 4891,
      "hotels": 4892,
      "gend": 4893,
      "parlaments": 4894,
      "give": 4895,
      "vorschlag": 4896,
      "verantwort": 4897,
      "success": 4898,
      "rece": 4899,
      "jen": 4900,
      "citizens": 4901,
      "ield": 4902,
      "measures": 4903,
      "did": 4904,
      "notwend": 4905,
      "ordin": 4906,
      "writ": 4907,
      "geh": 4908,
      "ace": 4909,
      "estab": 4910,
      "aro": 4911,
      "areas": 4912,
      "namen": 4913,
      "given": 4914,
      "install": 4915,
      "found": 4916,
      "ller": 4917,
      "erhalten": 4918,
      "hy": 4919,
      "restaurant": 4920,
      "establish": 4921,
      "itar": 4922,
      "few": 4923,
      "drei": 4924,
      "sour": 4925,
      "mel": 4926,
      "ulture": 4927,
      "mod": 4928,
      "appe": 4929,
      "non": 4930,
      "teur": 4931,
      "ev": 4932,
      "ning": 4933,
      "water": 4934,
      "ling": 4935,
      "range": 4936,
      "ek": 4937,
      "orig": 4938,
      "vill": 4939,
      "ichte": 4940,
      "rele": 4941,
      "welche": 4942,
      "bieten": 4943,
      "again": 4944,
      "reser": 4945,
      "close": 4946,
      "protection": 4947,
      "einmal": 4948,
      "break": 4949,
      "china": 4950,
      "2010": 4951,
      "struktur": 4952,
      "zusammenarbeit": 4953,
      "mand": 4954,
      "meth": 4955,
      "bra": 4956,
      "tref": 4957,
      "untersch": 4958,
      "beach": 4959,
      "provide": 4960,
      "friend": 4961,
      "entwickel": 4962,
      "necessary": 4963,
      "agr": 4964,
      "earch": 4965,
      "ues": 4966,
      "bor": 4967,
      "wed": 4968,
      "conne": 4969,
      "ppe": 4970,
      "schaften": 4971,
      "research": 4972,
      "ption": 4973,
      "km": 4974,
      "schließlich": 4975,
      "trade": 4976,
      "lead": 4977,
      "sprache": 4978,
      "fraktion": 4979,
      "sho": 4980,
      "preis": 4981,
      "olit": 4982,
      "verwen": 4983,
      "const": 4984,
      "joy": 4985,
      "hung": 4986,
      "clus": 4987,
      "bru": 4988,
      "letzten": 4989,
      "platz": 4990,
      "pract": 4991,
      "compet": 4992,
      "ensure": 4993,
      "flo": 4994,
      "naturlich": 4995,
      "him": 4996,
      "gesetz": 4997,
      "cooperation": 4998,
      "ines": 4999,
      "genau": 5000,
      "mobil": 5001,
      "increas": 5002,
      "großen": 5003,
      "wish": 5004,
      "posed": 5005,
      "implement": 5006,
      "unterstutzung": 5007,
      "ches": 5008,
      "merk": 5009,
      "opport": 5010,
      "dri": 5011,
      "aff": 5012,
      "ww": 5013,
      "tatsach": 5014,
      "dings": 5015,
      "2008": 5016,
      "utes": 5017,
      "zukunft": 5018,
      "gesetzt": 5019,
      "ihrem": 5020,
      "princi": 5021,
      "ente": 5022,
      "jeder": 5023,
      "bekann": 5024,
      "dial": 5025,
      "ussion": 5026,
      "united": 5027,
      "leicht": 5028,
      "opportun": 5029,
      "sequ": 5030,
      "bede": 5031,
      "book": 5032,
      "ultural": 5033,
      "alled": 5034,
      "pho": 5035,
      "shall": 5036,
      "ay": 5037,
      "care": 5038,
      "regierung": 5039,
      "entscheid": 5040,
      "consum": 5041,
      "lebens": 5042,
      "vide": 5043,
      "another": 5044,
      "anderungsantra": 5045,
      "energie": 5046,
      "treten": 5047,
      "complete": 5048,
      "entfer": 5049,
      "visit": 5050,
      "super": 5051,
      "burg": 5052,
      "vote": 5053,
      "pan": 5054,
      "liber": 5055,
      "tax": 5056,
      "dit": 5057,
      "aktiv": 5058,
      "bahn": 5059,
      "ira": 5060,
      "lungs": 5061,
      "richtung": 5062,
      "ules": 5063,
      "hope": 5064,
      "produkt": 5065,
      "igten": 5066,
      "bitte": 5067,
      "stimmung": 5068,
      "working": 5069,
      "100": 5070,
      "esse": 5071,
      "compan": 5072,
      "americ": 5073,
      "kraft": 5074,
      "ring": 5075,
      "blo": 5076,
      "origin": 5077,
      "cially": 5078,
      "reach": 5079,
      "mark": 5080,
      "drit": 5081,
      "cr": 5082,
      "genommen": 5083,
      "wett": 5084,
      "darf": 5085,
      "gabe": 5086,
      "lungen": 5087,
      "please": 5088,
      "subje": 5089,
      "sport": 5090,
      "leit": 5091,
      "invol": 5092,
      "fass": 5093,
      "pend": 5094,
      "asse": 5095,
      "nahe": 5096,
      "gere": 5097,
      "gesellschaft": 5098,
      "einge": 5099,
      "fert": 5100,
      "muß": 5101,
      "agt": 5102,
      "usa": 5103,
      "whether": 5104,
      "wards": 5105,
      "kurz": 5106,
      "einz": 5107,
      "besteht": 5108,
      "ible": 5109,
      "typ": 5110,
      "forderung": 5111,
      "move": 5112,
      "production": 5113,
      "iety": 5114,
      "field": 5115,
      "ict": 5116,
      "town": 5117,
      "yo": 5118,
      "always": 5119,
      "brit": 5120,
      "bedeut": 5121,
      "toge": 5122,
      "enjoy": 5123,
      "sever": 5124,
      "streng": 5125,
      "alles": 5126,
      "together": 5127,
      "kunst": 5128,
      "wegen": 5129,
      "forsch": 5130,
      "deutsch": 5131,
      "termin": 5132,
      "jan": 5133,
      "extre": 5134,
      "private": 5135,
      "directive": 5136,
      "meiner": 5137,
      "terms": 5138,
      "cu": 5139,
      "sele": 5140,
      "isation": 5141,
      "poin": 5142,
      "head": 5143,
      "third": 5144,
      "itaten": 5145,
      "better": 5146,
      "list": 5147,
      "hard": 5148,
      "views": 5149,
      "seinen": 5150,
      "central": 5151,
      "ders": 5152,
      "sibility": 5153,
      "weitere": 5154,
      "interest": 5155,
      "terror": 5156,
      "dren": 5157,
      "wendung": 5158,
      "needs": 5159,
      "flex": 5160,
      "mann": 5161,
      "lands": 5162,
      "bl": 5163,
      "crit": 5164,
      "deren": 5165,
      "account": 5166,
      "kampf": 5167,
      "wide": 5168,
      "around": 5169,
      "kultur": 5170,
      "cri": 5171,
      "recent": 5172,
      "fordern": 5173,
      "vielen": 5174,
      "vour": 5175,
      "german": 5176,
      "disk": 5177,
      "facil": 5178,
      "nal": 5179,
      "children": 5180,
      "ergeb": 5181,
      "light": 5182,
      "ii": 5183,
      "gesund": 5184,
      "load": 5185,
      "legisl": 5186,
      "beitra": 5187,
      "near": 5188,
      "kollegen": 5189,
      "uc": 5190,
      "betra": 5191,
      "kinder": 5192,
      "moglichkeit": 5193,
      "profession": 5194,
      "guar": 5195,
      "promo": 5196,
      "hmer": 5197,
      "making": 5198,
      "unge": 5199,
      "kind": 5200,
      "att": 5201,
      "handelt": 5202,
      "perfe": 5203,
      "fallen": 5204,
      "class": 5205,
      "word": 5206,
      "40": 5207,
      "heraus": 5208,
      "zeu": 5209,
      "women": 5210,
      "wettbewer": 5211,
      "richtlinie": 5212,
      "berichter": 5213,
      "direkt": 5214,
      "solid": 5215,
      "local": 5216,
      "transpar": 5217,
      "big": 5218,
      "wart": 5219,
      "vil": 5220,
      "industrie": 5221,
      "food": 5222,
      "berg": 5223,
      "kan": 5224,
      "ls": 5225,
      "2007": 5226,
      "abhang": 5227,
      "gemeinschaft": 5228,
      "probleme": 5229,
      "regul": 5230,
      "eren": 5231,
      "feat": 5232,
      "zeigt": 5233,
      "fs": 5234,
      "doc": 5235,
      "conditions": 5236,
      "ierungs": 5237,
      "accept": 5238,
      "stri": 5239,
      "proper": 5240,
      "kommt": 5241,
      "spolit": 5242,
      "pool": 5243,
      "auer": 5244,
      "schwi": 5245,
      "kno": 5246,
      "politischen": 5247,
      "pas": 5248,
      "ified": 5249,
      "ping": 5250,
      "dort": 5251,
      "zugang": 5252,
      "besonders": 5253,
      "benutz": 5254,
      "dou": 5255,
      "ikel": 5256,
      "ums": 5257,
      "ury": 5258,
      "proced": 5259,
      "face": 5260,
      "verfugung": 5261,
      "lack": 5262,
      "ped": 5263,
      "compu": 5264,
      "bedingungen": 5265,
      "hungen": 5266,
      "industry": 5267,
      "particularly": 5268,
      "2000": 5269,
      "photo": 5270,
      "beschaft": 5271,
      "soc": 5272,
      "mrs": 5273,
      "once": 5274,
      "internationalen": 5275,
      "via": 5276,
      "betrie": 5277,
      "automat": 5278,
      "going": 5279,
      "reco": 5280,
      "lux": 5281,
      "walt": 5282,
      "''": 5283,
      "kein": 5284,
      "exist": 5285,
      "station": 5286,
      "wirklich": 5287,
      "krit": 5288,
      "rolle": 5289,
      "equip": 5290,
      "location": 5291,
      "card": 5292,
      "bedeutung": 5293,
      "nehmer": 5294,
      "become": 5295,
      "berichterstat": 5296,
      "ming": 5297,
      "vin": 5298,
      "verbind": 5299,
      "prozess": 5300,
      "short": 5301,
      "spru": 5302,
      "aspe": 5303,
      "suchen": 5304,
      "sowohl": 5305,
      "frame": 5306,
      "experience": 5307,
      "kets": 5308,
      "west": 5309,
      "staff": 5310,
      "job": 5311,
      "verbrauch": 5312,
      "leistungen": 5313,
      "espe": 5314,
      "treffen": 5315,
      "uments": 5316,
      "diffic": 5317,
      "davon": 5318,
      "rappor": 5319,
      "gol": 5320,
      "fassen": 5321,
      "respect": 5322,
      "hervor": 5323,
      "event": 5324,
      "60": 5325,
      "rapporteur": 5326,
      "difficult": 5327,
      "losung": 5328,
      "beginn": 5329,
      "gue": 5330,
      "ths": 5331,
      "thema": 5332,
      "abkommen": 5333,
      "issues": 5334,
      "role": 5335,
      "board": 5336,
      "-,": 5337,
      "communic": 5338,
      "single": 5339,
      "erken": 5340,
      "standards": 5341,
      "amerik": 5342,
      "gewahr": 5343,
      "ences": 5344,
      "contri": 5345,
      "anzu": 5346,
      "decision": 5347,
      "mode": 5348,
      "artikel": 5349,
      "run": 5350,
      "material": 5351,
      "xim": 5352,
      "fordert": 5353,
      "tool": 5354,
      "cris": 5355,
      "gegenuber": 5356,
      "dessen": 5357,
      "rules": 5358,
      "iben": 5359,
      "represent": 5360,
      "product": 5361,
      "project": 5362,
      "whole": 5363,
      "vious": 5364,
      "volker": 5365,
      "nu": 5366,
      "80": 5367,
      "kap": 5368,
      "lik": 5369,
      "langu": 5370,
      "among": 5371,
      "frauen": 5372,
      "companies": 5373,
      "road": 5374,
      "halts": 5375,
      "aid": 5376,
      "various": 5377,
      "deal": 5378,
      "ground": 5379,
      "ham": 5380,
      "minist": 5381,
      "erreichen": 5382,
      "hilfe": 5383,
      "coming": 5384,
      "meer": 5385,
      "optim": 5386,
      "sector": 5387,
      "personen": 5388,
      "effective": 5389,
      "window": 5390,
      "weis": 5391,
      "mom": 5392,
      "democrat": 5393,
      "gas": 5394,
      "especially": 5395,
      "comfort": 5396,
      "weisen": 5397,
      "benef": 5398,
      "len": 5399,
      "resolution": 5400,
      "contra": 5401,
      "amb": 5402,
      "asso": 5403,
      "ural": 5404,
      "office": 5405,
      "guaran": 5406,
      "fern": 5407,
      "fiz": 5408,
      "network": 5409,
      "dank": 5410,
      "win": 5411,
      "east": 5412,
      "abo": 5413,
      "forderungen": 5414,
      "cli": 5415,
      "rid": 5416,
      "aim": 5417,
      "rift": 5418,
      "parte": 5419,
      "heim": 5420,
      "ize": 5421,
      "ply": 5422,
      "welcome": 5423,
      "\",": 5424,
      "\".": 5425,
      "innerhalb": 5426,
      "zwar": 5427,
      "steuer": 5428,
      "verbesser": 5429,
      "check": 5430,
      "iges": 5431,
      "muse": 5432,
      "anges": 5433,
      "frieden": 5434,
      "eigenen": 5435,
      "wirtschafts": 5436,
      "23": 5437,
      "cording": 5438,
      "following": 5439,
      "elect": 5440,
      "chr": 5441,
      "ategor": 5442,
      "ße": 5443,
      "employment": 5444,
      "sea": 5445,
      "family": 5446,
      "yet": 5447,
      "greif": 5448,
      "called": 5449,
      "ino": 5450,
      "lab": 5451,
      "esen": 5452,
      "create": 5453,
      "really": 5454,
      "schluss": 5455,
      "selves": 5456,
      "sty": 5457,
      "schwe": 5458,
      "befindet": 5459,
      "comes": 5460,
      "pose": 5461,
      "front": 5462,
      "itor": 5463,
      "taking": 5464,
      "matter": 5465,
      "isches": 5466,
      "zusatz": 5467,
      "fah": 5468,
      "haf": 5469,
      "peri": 5470,
      "technology": 5471,
      "hinter": 5472,
      "demand": 5473,
      "tz": 5474,
      "several": 5475,
      "pel": 5476,
      "mog": 5477,
      "mess": 5478,
      "oney": 5479,
      "ports": 5480,
      "zentrum": 5481,
      "unterstutzen": 5482,
      "gesehen": 5483,
      "acc": 5484,
      "lines": 5485,
      "gelegen": 5486,
      "peace": 5487,
      "teilen": 5488,
      "entlich": 5489,
      "hunder": 5490,
      "done": 5491,
      "eg": 5492,
      "neten": 5493,
      "fisch": 5494,
      "nego": 5495,
      "live": 5496,
      "period": 5497,
      "center": 5498,
      "rate": 5499,
      "initiative": 5500,
      "subject": 5501,
      "verpf": 5502,
      "erklar": 5503,
      "urch": 5504,
      "ably": 5505,
      "advan": 5506,
      "excell": 5507,
      "moglichkeiten": 5508,
      "favour": 5509,
      "ization": 5510,
      "treaty": 5511,
      "klim": 5512,
      "riften": 5513,
      "mochten": 5514,
      "frank": 5515,
      "bill": 5516,
      "ising": 5517,
      "ses": 5518,
      "ath": 5519,
      "produkte": 5520,
      "excellent": 5521,
      "never": 5522,
      "teile": 5523,
      "bezug": 5524,
      "gaben": 5525,
      "resour": 5526,
      "due": 5527,
      "dro": 5528,
      "four": 5529,
      "2006": 5530,
      "geschlossen": 5531,
      "negoti": 5532,
      "verschiedenen": 5533,
      "geschafts": 5534,
      "regional": 5535,
      "days": 5536,
      "besser": 5537,
      "veran": 5538,
      "erste": 5539,
      "ert": 5540,
      "improve": 5541,
      "feel": 5542,
      "aufge": 5543,
      "tv": 5544,
      "detail": 5545,
      "entfernt": 5546,
      "genann": 5547,
      "zept": 5548,
      "berlin": 5549,
      "nutzen": 5550,
      "intro": 5551,
      "chin": 5552,
      "isra": 5553,
      "hes": 5554,
      "gentle": 5555,
      "ief": 5556,
      "wider": 5557,
      "schwer": 5558,
      "reicht": 5559,
      "ats": 5560,
      "sci": 5561,
      "hohe": 5562,
      "ety": 5563,
      "term": 5564,
      "progress": 5565,
      "germany": 5566,
      "approach": 5567,
      "tages": 5568,
      "something": 5569,
      "vic": 5570,
      "moder": 5571,
      "commen": 5572,
      "attra": 5573,
      "bour": 5574,
      "konnten": 5575,
      "individual": 5576,
      "party": 5577,
      "understand": 5578,
      "az": 5579,
      "introdu": 5580,
      "behor": 5581,
      "enthalt": 5582,
      "gaste": 5583,
      "bad": 5584,
      "affe": 5585,
      "neben": 5586,
      "anim": 5587,
      "spolitik": 5588,
      "cast": 5589,
      "schnell": 5590,
      "ither": 5591,
      "absch": 5592,
      "komple": 5593,
      "suf": 5594,
      "freund": 5595,
      "ficient": 5596,
      "framework": 5597,
      "org": 5598,
      "litt": 5599,
      "einzu": 5600,
      "continue": 5601,
      "away": 5602,
      "price": 5603,
      "bildung": 5604,
      "stark": 5605,
      "schwier": 5606,
      "trau": 5607,
      "minutes": 5608,
      "ons": 5609,
      "imate": 5610,
      "mag": 5611,
      "iere": 5612,
      "jahres": 5613,
      "uhr": 5614,
      "ost": 5615,
      "known": 5616,
      "content": 5617,
      "ars": 5618,
      "ideal": 5619,
      "itself": 5620,
      "mid": 5621,
      "wahlen": 5622,
      "distri": 5623,
      "mechan": 5624,
      "hour": 5625,
      "often": 5626,
      "computer": 5627,
      "ladies": 5628,
      "moment": 5629,
      "absol": 5630,
      "schaffen": 5631,
      "link": 5632,
      "ght": 5633,
      "money": 5634,
      "until": 5635,
      "ausdruck": 5636,
      "safety": 5637,
      "krie": 5638,
      "breakfast": 5639,
      "anti": 5640,
      "gefahr": 5641,
      "administ": 5642,
      "aktion": 5643,
      "allerdings": 5644,
      "function": 5645,
      "pleas": 5646,
      "unterschied": 5647,
      "side": 5648,
      "user": 5649,
      "particip": 5650,
      "berichterstatter": 5651,
      "educ": 5652,
      "fundament": 5653,
      "vertrag": 5654,
      "ements": 5655,
      "fassung": 5656,
      "außerdem": 5657,
      "server": 5658,
      "gil": 5659,
      "according": 5660,
      "wachst": 5661,
      "schritt": 5662,
      "schrift": 5663,
      "haltung": 5664,
      "table": 5665,
      "little": 5666,
      "artic": 5667,
      "having": 5668,
      "opin": 5669,
      "etc": 5670,
      "ore": 5671,
      "sions": 5672,
      "zahlen": 5673,
      "least": 5674,
      "danken": 5675,
      "scho": 5676,
      "gebiet": 5677,
      "amo": 5678,
      "crisis": 5679,
      "hnen": 5680,
      "gentlemen": 5681,
      "cop": 5682,
      "organisation": 5683,
      "lot": 5684,
      "growth": 5685,
      "constit": 5686,
      "spr": 5687,
      "serious": 5688,
      "vertra": 5689,
      "rau": 5690,
      "teilung": 5691,
      "address": 5692,
      "integration": 5693,
      "grat": 5694,
      "abgeord": 5695,
      "bestehen": 5696,
      "zustand": 5697,
      "erweiter": 5698,
      "pic": 5699,
      "amendments": 5700,
      "gute": 5701,
      "mi": 5702,
      "ones": 5703,
      "wit": 5704,
      "hatten": 5705,
      "ify": 5706,
      "kat": 5707,
      "netz": 5708,
      "kommun": 5709,
      "agric": 5710,
      "rela": 5711,
      "ifiz": 5712,
      "leis": 5713,
      "music": 5714,
      "force": 5715,
      "fruh": 5716,
      "bution": 5717,
      "21": 5718,
      "gegeben": 5719,
      "cher": 5720,
      "zeitig": 5721,
      "cat": 5722,
      "gerade": 5723,
      "things": 5724,
      "dest": 5725,
      "ults": 5726,
      "laden": 5727,
      "horen": 5728,
      "stop": 5729,
      "zip": 5730,
      "towards": 5731,
      "building": 5732,
      "projekt": 5733,
      "mean": 5734,
      "hohen": 5735,
      "gefuhrt": 5736,
      "mention": 5737,
      "oren": 5738,
      "rather": 5739,
      "body": 5740,
      "institutions": 5741,
      "pact": 5742,
      "night": 5743,
      "film": 5744,
      "meinung": 5745,
      "times": 5746,
      "positive": 5747,
      "zusammenhang": 5748,
      "geld": 5749,
      "dre": 5750,
      "chten": 5751,
      "easy": 5752,
      "option": 5753,
      "zun": 5754,
      "promis": 5755,
      "flug": 5756,
      "ever": 5757,
      "customers": 5758,
      "although": 5759,
      "stimmen": 5760,
      "left": 5761,
      "industri": 5762,
      "keep": 5763,
      "erforder": 5764,
      "igkeiten": 5765,
      "row": 5766,
      "lange": 5767,
      "forward": 5768,
      "constru": 5769,
      "unehmen": 5770,
      "sichtlich": 5771,
      "22": 5772,
      "uring": 5773,
      "kop": 5774,
      "quite": 5775,
      "instrument": 5776,
      "weiß": 5777,
      "round": 5778,
      "zweiten": 5779,
      "entschließ": 5780,
      "din": 5781,
      "verhand": 5782,
      "indem": 5783,
      "strategie": 5784,
      "stain": 5785,
      "ago": 5786,
      "ober": 5787,
      "erwar": 5788,
      "vert": 5789,
      "baren": 5790,
      "dok": 5791,
      "deli": 5792,
      "cies": 5793,
      "agree": 5794,
      "active": 5795,
      "prepar": 5796,
      "jeden": 5797,
      "ances": 5798,
      "sep": 5799,
      "stabil": 5800,
      "value": 5801,
      "foc": 5802,
      "beiden": 5803,
      "presiden": 5804,
      "fte": 5805,
      "strong": 5806,
      "strategy": 5807,
      "politische": 5808,
      "unserem": 5809,
      "außen": 5810,
      "moun": 5811,
      "enten": 5812,
      "sitz": 5813,
      "confer": 5814,
      "video": 5815,
      "einander": 5816,
      "70": 5817,
      "enden": 5818,
      "etwa": 5819,
      "erfahr": 5820,
      "training": 5821,
      "sweise": 5822,
      "verander": 5823,
      "prasidentin": 5824,
      "lies": 5825,
      "madam": 5826,
      "2005": 5827,
      "alternat": 5828,
      "univers": 5829,
      "dor": 5830,
      "gesagt": 5831,
      "week": 5832,
      "along": 5833,
      "holid": 5834,
      "cir": 5835,
      "haushalts": 5836,
      "manu": 5837,
      "gruppe": 5838,
      "daran": 5839,
      "interess": 5840,
      "beaut": 5841,
      "kal": 5842,
      "mind": 5843,
      "increase": 5844,
      "graph": 5845,
      "archite": 5846,
      "clar": 5847,
      "zogen": 5848,
      "gemeinsamen": 5849,
      "activities": 5850,
      "weniger": 5851,
      "resources": 5852,
      "aufgrund": 5853,
      "hinaus": 5854,
      "ples": 5855,
      "begru": 5856,
      "jap": 5857,
      "band": 5858,
      "education": 5859,
      "harmon": 5860,
      "ail": 5861,
      "viol": 5862,
      "freed": 5863,
      "opportunity": 5864,
      "contact": 5865,
      "extreme": 5866,
      "rest": 5867,
      "christ": 5868,
      "safe": 5869,
      "israel": 5870,
      "above": 5871,
      "schlussel": 5872,
      "falt": 5873,
      "seem": 5874,
      "mosp": 5875,
      "wander": 5876,
      "digital": 5877,
      "bzw": 5878,
      "vorschriften": 5879,
      "ada": 5880,
      "achieve": 5881,
      "attent": 5882,
      "regulation": 5883,
      "musik": 5884,
      "south": 5885,
      "folge": 5886,
      "came": 5887,
      "halte": 5888,
      "provided": 5889,
      "code": 5890,
      "cke": 5891,
      "associ": 5892,
      "stelle": 5893,
      "foreign": 5894,
      "ski": 5895,
      "fig": 5896,
      "hon": 5897,
      "ians": 5898,
      "speak": 5899,
      "beautif": 5900,
      "sound": 5901,
      "atmosp": 5902,
      "might": 5903,
      "windows": 5904,
      "entscheiden": 5905,
      "solution": 5906,
      "ierungen": 5907,
      "gestat": 5908,
      "mass": 5909,
      "sogar": 5910,
      "points": 5911,
      "offentlichen": 5912,
      "extra": 5913,
      "europas": 5914,
      "border": 5915,
      "presidency": 5916,
      "ential": 5917,
      "oft": 5918,
      "troffen": 5919,
      "ball": 5920,
      "spar": 5921,
      "mic": 5922,
      "offic": 5923,
      "club": 5924,
      "ison": 5925,
      "grun": 5926,
      "sud": 5927,
      "subst": 5928,
      "model": 5929,
      "fis": 5930,
      "denken": 5931,
      "society": 5932,
      "freedom": 5933,
      "lear": 5934,
      "atives": 5935,
      "flach": 5936,
      "septem": 5937,
      "sil": 5938,
      "proto": 5939,
      "economy": 5940,
      "signific": 5941,
      "ises": 5942,
      "krise": 5943,
      "gesamt": 5944,
      "finally": 5945,
      "iken": 5946,
      "prochen": 5947,
      "chem": 5948,
      "gilt": 5949,
      "space": 5950,
      "return": 5951,
      "ebenfalls": 5952,
      "ym": 5953,
      "cra": 5954,
      "aul": 5955,
      "september": 5956,
      "links": 5957,
      "beteil": 5958,
      "relation": 5959,
      "wan": 5960,
      "behalf": 5961,
      "step": 5962,
      "eded": 5963,
      "gelegt": 5964,
      "include": 5965,
      "2004": 5966,
      "uellen": 5967,
      "clic": 5968,
      "download": 5969,
      "foto": 5970,
      "recommen": 5971,
      "solidar": 5972,
      "fi": 5973,
      "nord": 5974,
      "respe": 5975,
      "namlich": 5976,
      "application": 5977,
      "konfer": 5978,
      "verkauf": 5979,
      "words": 5980,
      "dic": 5981,
      "clean": 5982,
      "tit": 5983,
      "darin": 5984,
      "gemacht": 5985,
      "großer": 5986,
      "derzeit": 5987,
      "nichts": 5988,
      "leisten": 5989,
      "haft": 5990,
      "ently": 5991,
      "news": 5992,
      "mot": 5993,
      "garant": 5994,
      "total": 5995,
      "others": 5996,
      "millionen": 5997,
      "mitt": 5998,
      "japan": 5999,
      "ials": 6000,
      "tic": 6001,
      "vertre": 6002,
      "allgem": 6003,
      "assist": 6004,
      "young": 6005,
      "zehn": 6006,
      "bekannt": 6007,
      "strand": 6008,
      "setz": 6009,
      "tex": 6010,
      "sites": 6011,
      "deutschland": 6012,
      "ception": 6013,
      "cut": 6014,
      "proposals": 6015,
      "beruck": 6016,
      "green": 6017,
      "natural": 6018,
      "berucksicht": 6019,
      "thus": 6020,
      "ebene": 6021,
      "liches": 6022,
      "zeigen": 6023,
      "exten": 6024,
      "grundlage": 6025,
      "han": 6026,
      "fal": 6027,
      "fundamental": 6028,
      "meeting": 6029,
      "abstimmung": 6030,
      "ihm": 6031,
      "liefer": 6032,
      "schre": 6033,
      "ziele": 6034,
      "appropri": 6035,
      "chte": 6036,
      "reise": 6037,
      "vielleicht": 6038,
      "spir": 6039,
      "remain": 6040,
      "sure": 6041,
      "tober": 6042,
      "198": 6043,
      "gebra": 6044,
      "trotz": 6045,
      "costs": 6046,
      "rifft": 6047,
      "bare": 6048,
      "ihn": 6049,
      "media": 6050,
      "vice": 6051,
      "charac": 6052,
      "simply": 6053,
      "quar": 6054,
      "italien": 6055,
      "meisten": 6056,
      "verbunden": 6057,
      "betrifft": 6058,
      "ehr": 6059,
      "ging": 6060,
      "durfen": 6061,
      "zif": 6062,
      "2003": 6063,
      "perfect": 6064,
      "heart": 6065,
      "cen": 6066,
      "lay": 6067,
      "fan": 6068,
      "istic": 6069,
      "istan": 6070,
      "una": 6071,
      "bestand": 6072,
      "ification": 6073,
      "weiterhin": 6074,
      "groups": 6075,
      "accom": 6076,
      "besuch": 6077,
      "falle": 6078,
      "27": 6079,
      "zeichnet": 6080,
      "bat": 6081,
      "later": 6082,
      "gebie": 6083,
      "frist": 6084,
      "facilities": 6085,
      "passen": 6086,
      "capital": 6087,
      "beautiful": 6088,
      "adopted": 6089,
      "vergangen": 6090,
      "amendment": 6091,
      "inten": 6092,
      "continu": 6093,
      "bung": 6094,
      "ana": 6095,
      "projects": 6096,
      "suppor": 6097,
      "janu": 6098,
      "makes": 6099,
      "guests": 6100,
      "orts": 6101,
      "nationalen": 6102,
      "school": 6103,
      "bevolker": 6104,
      "transfer": 6105,
      "cultural": 6106,
      "entire": 6107,
      "opinion": 6108,
      "seinem": 6109,
      "environmental": 6110,
      "fit": 6111,
      "wesen": 6112,
      "nel": 6113,
      "shar": 6114,
      "bew": 6115,
      "zunehmen": 6116,
      "questions": 6117,
      "brauchen": 6118,
      "fish": 6119,
      "kir": 6120,
      "relax": 6121,
      "unterstutzt": 6122,
      "aden": 6123,
      "utet": 6124,
      "verwalt": 6125,
      "uren": 6126,
      "debat": 6127,
      "internal": 6128,
      "civil": 6129,
      "kamp": 6130,
      "ichts": 6131,
      "legislation": 6132,
      "konta": 6133,
      "share": 6134,
      "results": 6135,
      "responsibility": 6136,
      "express": 6137,
      "bath": 6138,
      "risk": 6139,
      "effiz": 6140,
      "stuck": 6141,
      "hlen": 6142,
      "attention": 6143,
      "formen": 6144,
      "note": 6145,
      "deci": 6146,
      "verbraucher": 6147,
      "gestim": 6148,
      "eth": 6149,
      "erlau": 6150,
      "lling": 6151,
      "aussprache": 6152,
      "luck": 6153,
      "unabhang": 6154,
      "rein": 6155,
      "entwicklungs": 6156,
      "jahrhunder": 6157,
      "effect": 6158,
      "ebenso": 6159,
      "glaube": 6160,
      "tu": 6161,
      "wiesen": 6162,
      "technical": 6163,
      "events": 6164,
      "provides": 6165,
      "mitteln": 6166,
      "nete": 6167,
      "gam": 6168,
      "riff": 6169,
      "hoste": 6170,
      "av": 6171,
      "zy": 6172,
      "corpor": 6173,
      "policies": 6174,
      "challen": 6175,
      "voraus": 6176,
      "solche": 6177,
      "sektor": 6178,
      "angebo": 6179,
      "sau": 6180,
      "minuten": 6181,
      "einigen": 6182,
      "gleichzeitig": 6183,
      "enterpr": 6184,
      "pts": 6185,
      "normal": 6186,
      "send": 6187,
      "restaurants": 6188,
      "history": 6189,
      "yes": 6190,
      "heiß": 6191,
      "ledge": 6192,
      "dim": 6193,
      "looking": 6194,
      "arbeitet": 6195,
      "verl": 6196,
      "motor": 6197,
      "greater": 6198,
      "forman": 6199,
      "clearly": 6200,
      "bewert": 6201,
      "file": 6202,
      "original": 6203,
      "raph": 6204,
      "ßt": 6205,
      "schritte": 6206,
      "geschichte": 6207,
      "object": 6208,
      "ented": 6209,
      "court": 6210,
      "method": 6211,
      "klima": 6212,
      "indeed": 6213,
      "demon": 6214,
      "relig": 6215,
      "anspru": 6216,
      "moglichen": 6217,
      "concerned": 6218,
      "neuer": 6219,
      "partn": 6220,
      "commer": 6221,
      "nove": 6222,
      "fonds": 6223,
      "achst": 6224,
      "luft": 6225,
      "wissenschaft": 6226,
      "past": 6227,
      "erwa": 6228,
      "solutions": 6229,
      "democra": 6230,
      "feld": 6231,
      "2001": 6232,
      "iar": 6233,
      "descri": 6234,
      "suit": 6235,
      "century": 6236,
      "gebung": 6237,
      "sollen": 6238,
      "insel": 6239,
      "messen": 6240,
      "box": 6241,
      "valu": 6242,
      "sei": 6243,
      "linien": 6244,
      "vorschlage": 6245,
      "jour": 6246,
      "offe": 6247,
      "language": 6248,
      "losen": 6249,
      "chs": 6250,
      "guest": 6251,
      "manufact": 6252,
      "lig": 6253,
      "zi": 6254,
      "sage": 6255,
      "quick": 6256,
      "minim": 6257,
      "auszu": 6258,
      "elekt": 6259,
      "isiert": 6260,
      "nature": 6261,
      "bleiben": 6262,
      "sicherheits": 6263,
      "fluss": 6264,
      "funds": 6265,
      "increasing": 6266,
      "lei": 6267,
      "ril": 6268,
      "maxim": 6269,
      "context": 6270,
      "besten": 6271,
      "importance": 6272,
      "ativen": 6273,
      "friendly": 6274,
      "draw": 6275,
      "performan": 6276,
      "liste": 6277,
      "directly": 6278,
      "type": 6279,
      "situated": 6280,
      "liberal": 6281,
      "unst": 6282,
      "entsch": 6283,
      "verkehrs": 6284,
      "iting": 6285,
      "kolleg": 6286,
      "ov": 6287,
      "though": 6288,
      "analy": 6289,
      "wenig": 6290,
      "reiche": 6291,
      "currently": 6292,
      "firm": 6293,
      "sustain": 6294,
      "bemu": 6295,
      "amp": 6296,
      "keinen": 6297,
      "ished": 6298,
      "prim": 6299,
      "answer": 6300,
      "airport": 6301,
      "grunde": 6302,
      "ergebnis": 6303,
      "voted": 6304,
      "ausschusses": 6305,
      "prakt": 6306,
      "konferenz": 6307,
      "ived": 6308,
      "gestimmt": 6309,
      "fahigkeit": 6310,
      "neg": 6311,
      "slo": 6312,
      "changes": 6313,
      "umfassen": 6314,
      "ain": 6315,
      "nit": 6316,
      "conference": 6317,
      "bevor": 6318,
      "wat": 6319,
      "monitor": 6320,
      "forts": 6321,
      "emis": 6322,
      "ausch": 6323,
      "90": 6324,
      "gal": 6325,
      "outs": 6326,
      "booking": 6327,
      "rund": 6328,
      "procedure": 6329,
      "principle": 6330,
      "status": 6331,
      "demonstr": 6332,
      "els": 6333,
      "cru": 6334,
      "ama": 6335,
      "pages": 6336,
      "lla": 6337,
      "supp": 6338,
      "amerikan": 6339,
      "wichtige": 6340,
      "weite": 6341,
      "ux": 6342,
      "funf": 6343,
      "systeme": 6344,
      "mitted": 6345,
      "obwohl": 6346,
      "responsible": 6347,
      "setzt": 6348,
      "forschung": 6349,
      "opt": 6350,
      "contain": 6351,
      "kit": 6352,
      "vollstand": 6353,
      "nice": 6354,
      "travel": 6355,
      "ziehen": 6356,
      "ckt": 6357,
      "hab": 6358,
      "significant": 6359,
      "nieder": 6360,
      "sug": 6361,
      "worten": 6362,
      "immt": 6363,
      "dienstleistungen": 6364,
      "zone": 6365,
      "brand": 6366,
      "appear": 6367,
      "gemaß": 6368,
      "required": 6369,
      "zustellen": 6370,
      "stock": 6371,
      "zunachst": 6372,
      "werde": 6373,
      "mitglieder": 6374,
      "mitarbeit": 6375,
      "professional": 6376,
      "wall": 6377,
      "bul": 6378,
      "sus": 6379,
      "infra": 6380,
      "deutlich": 6381,
      "anderer": 6382,
      "iled": 6383,
      "geschlagen": 6384,
      "seits": 6385,
      "micro": 6386,
      "wirtschaftlichen": 6387,
      "aug": 6388,
      "ench": 6389,
      "vereinbar": 6390,
      "benot": 6391,
      "besit": 6392,
      "mber": 6393,
      "freu": 6394,
      "democratic": 6395,
      "bedeutet": 6396,
      "corre": 6397,
      "2002": 6398,
      "upon": 6399,
      "potent": 6400,
      "rad": 6401,
      "hib": 6402,
      "rank": 6403,
      "empf": 6404,
      "sun": 6405,
      "authorities": 6406,
      "lost": 6407,
      "image": 6408,
      "essential": 6409,
      "owed": 6410,
      "greich": 6411,
      "imes": 6412,
      "stein": 6413,
      "november": 6414,
      "gern": 6415,
      "aging": 6416,
      "gemeinsame": 6417,
      "cla": 6418,
      "spielen": 6419,
      "werte": 6420,
      "hem": 6421,
      "verantwortung": 6422,
      "museum": 6423,
      "democracy": 6424,
      "regions": 6425,
      "greifen": 6426,
      "beispielsweise": 6427,
      "north": 6428,
      "spie": 6429,
      "ativ": 6430,
      "affair": 6431,
      "paris": 6432,
      "produktion": 6433,
      "mals": 6434,
      "ival": 6435,
      "landes": 6436,
      "edi": 6437,
      "teilt": 6438,
      "gratul": 6439,
      "fahrt": 6440,
      "competition": 6441,
      "seen": 6442,
      "blu": 6443,
      "item": 6444,
      "veranst": 6445,
      "demokratie": 6446,
      "everything": 6447,
      "kontrolle": 6448,
      "weder": 6449,
      "anwendung": 6450,
      "ansicht": 6451,
      "parties": 6452,
      "cd": 6453,
      "phil": 6454,
      "darum": 6455,
      "erfolgreich": 6456,
      "entscheidung": 6457,
      "handeln": 6458,
      "einsatz": 6459,
      "zentral": 6460,
      "garden": 6461,
      "zuglich": 6462,
      "volle": 6463,
      "structure": 6464,
      "gebracht": 6465,
      "gruppen": 6466,
      "ior": 6467,
      "regionen": 6468,
      "gesundheit": 6469,
      "nachsten": 6470,
      "rum": 6471,
      "gehort": 6472,
      "grand": 6473,
      "combin": 6474,
      "april": 6475,
      "character": 6476,
      "engine": 6477,
      "herren": 6478,
      "cise": 6479,
      "jung": 6480,
      "hnt": 6481,
      "afric": 6482,
      "26": 6483,
      "fight": 6484,
      "verhandlungen": 6485,
      "article": 6486,
      "requirements": 6487,
      "discussion": 6488,
      "beziehungen": 6489,
      "enough": 6490,
      "ingen": 6491,
      "menschenrechte": 6492,
      "investment": 6493,
      "reihe": 6494,
      "months": 6495,
      "prasent": 6496,
      "condition": 6497,
      "wirkungen": 6498,
      "gewalt": 6499,
      "mbh": 6500,
      "longer": 6501,
      "500": 6502,
      "umsetzung": 6503,
      "iran": 6504,
      "wettbewerbs": 6505,
      "separ": 6506,
      "developed": 6507,
      "winter": 6508,
      "kn": 6509,
      "prevent": 6510,
      "customer": 6511,
      "gene": 6512,
      "related": 6513,
      "agenda": 6514,
      "regist": 6515,
      "erfolg": 6516,
      "bereichen": 6517,
      "dad": 6518,
      "mem": 6519,
      "hinzu": 6520,
      "markets": 6521,
      "comfortable": 6522,
      "behorden": 6523,
      "gef": 6524,
      "proposed": 6525,
      "spo": 6526,
      "institutionen": 6527,
      "ager": 6528,
      "weiteren": 6529,
      "game": 6530,
      "final": 6531,
      "cting": 6532,
      "ables": 6533,
      "implementation": 6534,
      "lied": 6535,
      "versuch": 6536,
      "recogn": 6537,
      "vertrau": 6538,
      "apply": 6539,
      "ihres": 6540,
      "jede": 6541,
      "schif": 6542,
      "stud": 6543,
      "request": 6544,
      "sec": 6545,
      "interests": 6546,
      "dru": 6547,
      "urlau": 6548,
      "ought": 6549,
      "gebau": 6550,
      "acro": 6551,
      "phone": 6552,
      "needed": 6553,
      "dialog": 6554,
      "ganzen": 6555,
      "climate": 6556,
      "click": 6557,
      "interesse": 6558,
      "kleinen": 6559,
      "univer": 6560,
      "iver": 6561,
      "held": 6562,
      "freiheit": 6563,
      "sex": 6564,
      "jedes": 6565,
      "enthalten": 6566,
      "gegenwart": 6567,
      "arri": 6568,
      "internationale": 6569,
      "search": 6570,
      "angelegen": 6571,
      "soon": 6572,
      "reserv": 6573,
      "gmbh": 6574,
      "leistungs": 6575,
      "familien": 6576,
      "umente": 6577,
      "consequ": 6578,
      "debatte": 6579,
      "28": 6580,
      "ined": 6581,
      "uelle": 6582,
      "works": 6583,
      "usse": 6584,
      "document": 6585,
      "true": 6586,
      "extremely": 6587,
      "verfug": 6588,
      "involved": 6589,
      "guide": 6590,
      "notwendig": 6591,
      "performance": 6592,
      "mob": 6593,
      "ziellen": 6594,
      "communication": 6595,
      "themselves": 6596,
      "herz": 6597,
      "ni": 6598,
      "erei": 6599,
      "gab": 6600,
      "additional": 6601,
      "erziel": 6602,
      "pression": 6603,
      "uberein": 6604,
      "living": 6605,
      "schu": 6606,
      "wachstum": 6607,
      "dop": 6608,
      "either": 6609,
      "golf": 6610,
      "happen": 6611,
      "www": 6612,
      "hoffe": 6613,
      "iers": 6614,
      "modif": 6615,
      "ano": 6616,
      "mensch": 6617,
      "affairs": 6618,
      "erho": 6619,
      "acy": 6620,
      "wachsen": 6621,
      "nimmt": 6622,
      "empfehl": 6623,
      "setting": 6624,
      "entsprech": 6625,
      "consult": 6626,
      "pc": 6627,
      "efforts": 6628,
      "grenzen": 6629,
      "indic": 6630,
      "presented": 6631,
      "host": 6632,
      "chance": 6633,
      "stead": 6634,
      "russia": 6635,
      "bund": 6636,
      "jeweil": 6637,
      "unique": 6638,
      "kei": 6639,
      "cases": 6640,
      "unch": 6641,
      "sozialen": 6642,
      "holiday": 6643,
      "hinder": 6644,
      "klic": 6645,
      "previous": 6646,
      "kil": 6647,
      "feder": 6648,
      "verur": 6649,
      "scheint": 6650,
      "aufmerk": 6651,
      "ichtet": 6652,
      "dence": 6653,
      "speed": 6654,
      "utzt": 6655,
      "happ": 6656,
      "punkte": 6657,
      "roman": 6658,
      "rig": 6659,
      "profit": 6660,
      "verwendet": 6661,
      "ators": 6662,
      "prices": 6663,
      "ermoglich": 6664,
      "culture": 6665,
      "almost": 6666,
      "bisher": 6667,
      "peten": 6668,
      "betre": 6669,
      "arg": 6670,
      "france": 6671,
      "features": 6672,
      "anna": 6673,
      "swi": 6674,
      "publik": 6675,
      "verschiedene": 6676,
      "apartments": 6677,
      "ye": 6678,
      "convention": 6679,
      "maintain": 6680,
      "focus": 6681,
      "thanks": 6682,
      "aufmerksam": 6683,
      "wunder": 6684,
      "letzt": 6685,
      "handels": 6686,
      "bevolkerung": 6687,
      "afri": 6688,
      "verbindung": 6689,
      "gelten": 6690,
      "five": 6691,
      "sand": 6692,
      "appropriate": 6693,
      "ires": 6694,
      "flexib": 6695,
      "erhe": 6696,
      "zielle": 6697,
      "wech": 6698,
      "preise": 6699,
      "french": 6700,
      "arbeitsp": 6701,
      "dokument": 6702,
      "cross": 6703,
      "einzelnen": 6704,
      "losungen": 6705,
      "karte": 6706,
      "negotiations": 6707,
      "istischen": 6708,
      "depend": 6709,
      "knowledge": 6710,
      "milit": 6711,
      "erreicht": 6712,
      "esten": 6713,
      "developing": 6714,
      "angebot": 6715,
      "entsprechen": 6716,
      "konkre": 6717,
      "pers": 6718,
      "created": 6719,
      "bald": 6720,
      "offentlich": 6721,
      "1999": 6722,
      "--": 6723,
      "fortun": 6724,
      "langen": 6725,
      "starken": 6726,
      "details": 6727,
      "carr": 6728,
      "ured": 6729,
      "mobile": 6730,
      "parts": 6731,
      "joint": 6732,
      "users": 6733,
      "sinn": 6734,
      "leider": 6735,
      "walk": 6736,
      "wechsel": 6737,
      "verhalt": 6738,
      "sab": 6739,
      "nitt": 6740,
      "famous": 6741,
      "gets": 6742,
      "multi": 6743,
      "sha": 6744,
      "included": 6745,
      "got": 6746,
      "designed": 6747,
      "competit": 6748,
      "pie": 6749,
      "american": 6750,
      "ersch": 6751,
      "immedi": 6752,
      "weltweit": 6753,
      "genie": 6754,
      "ogue": 6755,
      "island": 6756,
      "schla": 6757,
      "35": 6758,
      "mig": 6759,
      "territ": 6760,
      "franz": 6761,
      "hold": 6762,
      "unded": 6763,
      "folgt": 6764,
      "binnen": 6765,
      "29": 6766,
      "yl": 6767,
      "dynam": 6768,
      "igungs": 6769,
      "actually": 6770,
      "damen": 6771,
      "befinden": 6772,
      "built": 6773,
      "nachhalt": 6774,
      "relations": 6775,
      "dut": 6776,
      "fail": 6777,
      "uell": 6778,
      "kategor": 6779,
      "gleichen": 6780,
      "workers": 6781,
      "diskussion": 6782,
      "lasst": 6783,
      "atory": 6784,
      "andid": 6785,
      "copy": 6786,
      "schau": 6787,
      "arbeitung": 6788,
      "leistung": 6789,
      "schaffung": 6790,
      "stil": 6791,
      "akzept": 6792,
      "entwickelt": 6793,
      "ica": 6794,
      "analys": 6795,
      "street": 6796,
      "metho": 6797,
      "kennt": 6798,
      "kontakt": 6799,
      "phas": 6800,
      "chter": 6801,
      "rail": 6802,
      "determin": 6803,
      "auswirkungen": 6804,
      "abgeordneten": 6805,
      "claim": 6806,
      "exclus": 6807,
      "lit": 6808,
      "behand": 6809,
      "uberpru": 6810,
      "haushalt": 6811,
      "early": 6812,
      "western": 6813,
      "popular": 6814,
      "expect": 6815,
      "race": 6816,
      "dauer": 6817,
      "zeichen": 6818,
      "rap": 6819,
      "idea": 6820,
      "schle": 6821,
      "syn": 6822,
      "hinblick": 6823,
      "double": 6824,
      "vorgeschlagen": 6825,
      "exchange": 6826,
      "nacht": 6827,
      "militar": 6828,
      "verfugt": 6829,
      "fire": 6830,
      "sent": 6831,
      "anlage": 6832,
      "ki": 6833,
      "ermoglicht": 6834,
      "cker": 6835,
      "throughout": 6836,
      "leading": 6837,
      "outside": 6838,
      "onen": 6839,
      "spras": 6840,
      "45": 6841,
      "english": 6842,
      "bran": 6843,
      "ries": 6844,
      "ffe": 6845,
      "kommunik": 6846,
      "dring": 6847,
      "innovation": 6848,
      "helfen": 6849,
      "receive": 6850,
      "encour": 6851,
      "rieben": 6852,
      "industrial": 6853,
      "iving": 6854,
      "certainly": 6855,
      "wesent": 6856,
      "stic": 6857,
      "refle": 6858,
      "schließen": 6859,
      "swe": 6860,
      "atic": 6861,
      "apartment": 6862,
      "fehler": 6863,
      "hindern": 6864,
      "haps": 6865,
      "recommend": 6866,
      "stage": 6867,
      "rot": 6868,
      "series": 6869,
      "tatsachlich": 6870,
      "across": 6871,
      "sprasident": 6872,
      "themen": 6873,
      "era": 6874,
      "mm": 6875,
      "erforderlich": 6876,
      "idence": 6877,
      "register": 6878,
      "london": 6879,
      "villa": 6880,
      "verordnung": 6881,
      "richten": 6882,
      "perhaps": 6883,
      "zeiten": 6884,
      "basic": 6885,
      "morgen": 6886,
      "privat": 6887,
      "spater": 6888,
      "smo": 6889,
      "ilar": 6890,
      "itu": 6891,
      "exec": 6892,
      "fasst": 6893,
      "arm": 6894,
      "unver": 6895,
      "dimen": 6896,
      "abzu": 6897,
      "traditional": 6898,
      "ceed": 6899,
      "sorgen": 6900,
      "takes": 6901,
      "jenigen": 6902,
      "ado": 6903,
      "gesamten": 6904,
      "austri": 6905,
      "menu": 6906,
      "standen": 6907,
      "bedeuten": 6908,
      "ellen": 6909,
      "tatsache": 6910,
      "juni": 6911,
      "enable": 6912,
      "afen": 6913,
      "nothing": 6914,
      "andern": 6915,
      "ctors": 6916,
      "coll": 6917,
      "nutzung": 6918,
      "ash": 6919,
      "plant": 6920,
      "six": 6921,
      "anderungsantrage": 6922,
      "spricht": 6923,
      "atur": 6924,
      "staats": 6925,
      "stunden": 6926,
      "intens": 6927,
      "anfang": 6928,
      "files": 6929,
      "angesichts": 6930,
      "spezial": 6931,
      "schaden": 6932,
      "ift": 6933,
      "sprach": 6934,
      "hours": 6935,
      "rule": 6936,
      "guarantee": 6937,
      "source": 6938,
      "heut": 6939,
      "effekt": 6940,
      "zeugen": 6941,
      "ausgestat": 6942,
      "dle": 6943,
      "connection": 6944,
      "august": 6945,
      "neut": 6946,
      "isse": 6947,
      "rec": 6948,
      "verpflicht": 6949,
      "itionen": 6950,
      "constitution": 6951,
      "publish": 6952,
      "umfang": 6953,
      "cup": 6954,
      "verte": 6955,
      "warum": 6956,
      "dadurch": 6957,
      "wunschen": 6958,
      "atta": 6959,
      "lose": 6960,
      "doing": 6961,
      "amount": 6962,
      "majority": 6963,
      "avo": 6964,
      "197": 6965,
      "emphas": 6966,
      "bestat": 6967,
      "ktionen": 6968,
      "alternative": 6969,
      "email": 6970,
      "coordin": 6971,
      "aren": 6972,
      "wood": 6973,
      "block": 6974,
      "igte": 6975,
      "gree": 6976,
      "kolleginnen": 6977,
      "denke": 6978,
      "bekampf": 6979,
      "hauf": 6980,
      "regeln": 6981,
      "anderungsantrag": 6982,
      "took": 6983,
      "remo": 6984,
      "complex": 6985,
      "ency": 6986,
      "isieren": 6987,
      "interessen": 6988,
      "zudem": 6989,
      "package": 6990,
      "love": 6991,
      "partners": 6992,
      "richtungen": 6993,
      "writing": 6994,
      "kleine": 6995,
      "benutzer": 6996,
      "orient": 6997,
      "angenommen": 6998,
      "aufgabe": 6999,
      "style": 7000,
      "ired": 7001,
      "reib": 7002,
      "concerning": 7003,
      "military": 7004,
      "kontroll": 7005,
      "handen": 7006,
      "forms": 7007,
      "prinzip": 7008,
      "richtig": 7009,
      "strengthen": 7010,
      "jobs": 7011,
      "astro": 7012,
      "beitrit": 7013,
      "stoff": 7014,
      "jedem": 7015,
      "ean": 7016,
      "programmes": 7017,
      "pap": 7018,
      "erzeug": 7019,
      "regarding": 7020,
      "extern": 7021,
      "loss": 7022,
      "vielfalt": 7023,
      "bereiche": 7024,
      "limited": 7025,
      "construction": 7026,
      "garten": 7027,
      "base": 7028,
      "anten": 7029,
      "phys": 7030,
      "traf": 7031,
      "scre": 7032,
      "objective": 7033,
      "colleag": 7034,
      "tete": 7035,
      "pli": 7036,
      "mentioned": 7037,
      "existing": 7038,
      "defen": 7039,
      "zahlt": 7040,
      "wunsch": 7041,
      "deleg": 7042,
      "broad": 7043,
      "installation": 7044,
      "ested": 7045,
      "player": 7046,
      "vereinigten": 7047,
      "gos": 7048,
      "sag": 7049,
      "hear": 7050,
      "langer": 7051,
      "ya": 7052,
      "black": 7053,
      "instead": 7054,
      "regular": 7055,
      "fuß": 7056,
      "urspr": 7057,
      "flugh": 7058,
      "plus": 7059,
      "accommod": 7060,
      "agreements": 7061,
      "fix": 7062,
      "usst": 7063,
      "bekampfung": 7064,
      "acce": 7065,
      "format": 7066,
      "absolute": 7067,
      "squ": 7068,
      "technologie": 7069,
      "population": 7070,
      "anwend": 7071,
      "hind": 7072,
      "equipment": 7073,
      "practice": 7074,
      "scient": 7075,
      "yor": 7076,
      "agent": 7077,
      "hoher": 7078,
      "thern": 7079,
      "beitrag": 7080,
      "gg": 7081,
      "ubr": 7082,
      "informations": 7083,
      "gefu": 7084,
      "oster": 7085,
      "turkey": 7086,
      "impact": 7087,
      "doll": 7088,
      "creation": 7089,
      "uß": 7090,
      "justice": 7091,
      "transl": 7092,
      "auswahl": 7093,
      "conflic": 7094,
      "augen": 7095,
      "gerne": 7096,
      "onom": 7097,
      "heißt": 7098,
      "rang": 7099,
      "hinsichtlich": 7100,
      "ganze": 7101,
      "america": 7102,
      "element": 7103,
      "leistet": 7104,
      "doppel": 7105,
      "similar": 7106,
      "mehrere": 7107,
      "simple": 7108,
      "eing": 7109,
      "enlarge": 7110,
      "cert": 7111,
      "concerns": 7112,
      "purch": 7113,
      "engage": 7114,
      "subsi": 7115,
      "former": 7116,
      "sky": 7117,
      "bio": 7118,
      "gran": 7119,
      "wein": 7120,
      "plann": 7121,
      "iment": 7122,
      "established": 7123,
      "bleibt": 7124,
      "300": 7125,
      "dv": 7126,
      "portug": 7127,
      "includes": 7128,
      "ukra": 7129,
      "decisions": 7130,
      "symb": 7131,
      "wichtigen": 7132,
      "foot": 7133,
      "einheit": 7134,
      "completely": 7135,
      "potential": 7136,
      "gerichtet": 7137,
      "compar": 7138,
      "gericht": 7139,
      "altung": 7140,
      "wise": 7141,
      "volution": 7142,
      "credit": 7143,
      "acqu": 7144,
      "konf": 7145,
      "unseres": 7146,
      "satis": 7147,
      "lager": 7148,
      "mitarbeiter": 7149,
      "gip": 7150,
      "stimme": 7151,
      "ichten": 7152,
      "capac": 7153,
      "meinen": 7154,
      "print": 7155,
      "below": 7156,
      "ub": 7157,
      "krank": 7158,
      "graf": 7159,
      "applications": 7160,
      "choice": 7161,
      "barce": 7162,
      "wochen": 7163,
      "efficient": 7164,
      "kund": 7165,
      "verteid": 7166,
      "aware": 7167,
      "everyone": 7168,
      "jul": 7169,
      "tempor": 7170,
      "turkei": 7171,
      "kern": 7172,
      "mindest": 7173,
      "buy": 7174,
      "reasons": 7175,
      "wonder": 7176,
      "distribution": 7177,
      "reiben": 7178,
      "ets": 7179,
      "bekommen": 7180,
      "correct": 7181,
      "volks": 7182,
      "somit": 7183,
      "febru": 7184,
      "enor": 7185,
      "independ": 7186,
      "equipped": 7187,
      "poor": 7188,
      "oil": 7189,
      "beein": 7190,
      "tle": 7191,
      "sense": 7192,
      "modell": 7193,
      "consumer": 7194,
      "pted": 7195,
      "verstandlich": 7196,
      "antic": 7197,
      "ith": 7198,
      "mangel": 7199,
      "oblig": 7200,
      "unfortun": 7201,
      "cious": 7202,
      "warm": 7203,
      "bezuglich": 7204,
      "agricultural": 7205,
      "pi": 7206,
      "bestimmungen": 7207,
      "allows": 7208,
      "choose": 7209,
      "quo": 7210,
      "konig": 7211,
      "anderungen": 7212,
      "lad": 7213,
      "meines": 7214,
      "external": 7215,
      "cou": 7216,
      "recently": 7217,
      "mediter": 7218,
      "fres": 7219,
      "hom": 7220,
      "prob": 7221,
      "summer": 7222,
      "31": 7223,
      "values": 7224,
      "gast": 7225,
      "fried": 7226,
      "gipfel": 7227,
      "ination": 7228,
      "reports": 7229,
      "universit": 7230,
      "white": 7231,
      "genu": 7232,
      "este": 7233,
      "sieht": 7234,
      "untersuch": 7235,
      "balance": 7236,
      "krimin": 7237,
      "generation": 7238,
      "conclus": 7239,
      "koordin": 7240,
      "circ": 7241,
      "cia": 7242,
      "spezif": 7243,
      "yon": 7244,
      "erweiterung": 7245,
      "franzos": 7246,
      "prem": 7247,
      "vertrags": 7248,
      "objectives": 7249,
      "telefon": 7250,
      "influ": 7251,
      "counter": 7252,
      "temper": 7253,
      "wirtschaftliche": 7254,
      "entschließung": 7255,
      "gult": 7256,
      "middle": 7257,
      "ahn": 7258,
      "learn": 7259,
      "riffen": 7260,
      "bedarf": 7261,
      "koll": 7262,
      "fran": 7263,
      "spect": 7264,
      "aufzu": 7265,
      "guarante": 7266,
      "highl": 7267,
      "spend": 7268,
      "affen": 7269,
      "grunden": 7270,
      "floor": 7271,
      "brow": 7272,
      "benefit": 7273,
      "relev": 7274,
      "fisher": 7275,
      "sper": 7276,
      "assess": 7277,
      "goods": 7278,
      "barcelon": 7279,
      "ush": 7280,
      "mediterran": 7281,
      "achten": 7282,
      "frankreich": 7283,
      "def": 7284,
      "materials": 7285,
      "visions": 7286,
      "grundsatz": 7287,
      "konzentr": 7288,
      "received": 7289,
      "lam": 7290,
      ".,": 7291,
      "196": 7292,
      "korper": 7293,
      "treatment": 7294,
      "tagen": 7295,
      "atten": 7296,
      "export": 7297,
      "barkeit": 7298,
      "sibil": 7299,
      "veh": 7300,
      "huge": 7301,
      "grie": 7302,
      "komfort": 7303,
      "lisbon": 7304,
      "erhalt": 7305,
      "vig": 7306,
      "mai": 7307,
      "stability": 7308,
      "deck": 7309,
      "stam": 7310,
      "ological": 7311,
      "anlagen": 7312,
      "bir": 7313,
      "flughafen": 7314,
      "familie": 7315,
      "exhib": 7316,
      "pite": 7317,
      "ziv": 7318,
      "bind": 7319,
      "einsch": 7320,
      "linux": 7321,
      "bab": 7322,
      "pil": 7323,
      "sive": 7324,
      "uberwach": 7325,
      "verwenden": 7326,
      "iso": 7327,
      "actions": 7328,
      "door": 7329,
      "traffic": 7330,
      "scri": 7331,
      "swit": 7332,
      "added": 7333,
      "debian": 7334,
      "anno": 7335,
      "zuge": 7336,
      "display": 7337,
      "genießen": 7338,
      "projekte": 7339,
      "administrat": 7340,
      "turk": 7341,
      "gerecht": 7342,
      "verbesserung": 7343,
      "aktivitaten": 7344,
      "beschaftigung": 7345,
      "size": 7346,
      "discover": 7347,
      "brussel": 7348,
      "wichtigsten": 7349,
      "verwendung": 7350,
      "freien": 7351,
      "fullen": 7352,
      "symbol": 7353,
      "ergebnisse": 7354,
      "path": 7355,
      "dimension": 7356,
      "woche": 7357,
      "angemessen": 7358,
      "jugend": 7359,
      "sports": 7360,
      "tools": 7361,
      "marketing": 7362,
      "irgend": 7363,
      "instruments": 7364,
      "aufbau": 7365,
      "bestell": 7366,
      "stellungen": 7367,
      "ferien": 7368,
      "wobei": 7369,
      "uberzeug": 7370,
      "krieg": 7371,
      "besu": 7372,
      "nic": 7373,
      "depart": 7374,
      "quickly": 7375,
      "despite": 7376,
      "technik": 7377,
      "university": 7378,
      "einzig": 7379,
      "manner": 7380,
      "arten": 7381,
      "gesundheits": 7382,
      "gros": 7383,
      "guten": 7384,
      "adap": 7385,
      "lissab": 7386,
      "successful": 7387,
      "governments": 7388,
      "jud": 7389,
      "ane": 7390,
      "radio": 7391,
      "interpre": 7392,
      "arbeitnehmer": 7393,
      "electron": 7394,
      "frequ": 7395,
      "desk": 7396,
      "swim": 7397,
      "dialogue": 7398,
      "iko": 7399,
      "ragen": 7400,
      "nations": 7401,
      "numer": 7402,
      "entwickeln": 7403,
      "zz": 7404,
      "commercial": 7405,
      "icher": 7406,
      "auftrag": 7407,
      "shows": 7408,
      "beweg": 7409,
      "ends": 7410,
      "section": 7411,
      "congratul": 7412,
      "gunst": 7413,
      "sommer": 7414,
      "geeig": 7415,
      "promise": 7416,
      "stabilitat": 7417,
      "russland": 7418,
      "nuclear": 7419,
      "ml": 7420,
      "organisationen": 7421,
      "carry": 7422,
      "barcelona": 7423,
      "lissabon": 7424,
      "highly": 7425,
      "letter": 7426,
      "straße": 7427,
      "mountain": 7428,
      "levels": 7429,
      "sache": 7430,
      "spieler": 7431,
      "betroffen": 7432,
      "contains": 7433,
      "join": 7434,
      "anzahl": 7435,
      "placed": 7436,
      "beginning": 7437,
      "uses": 7438,
      "labour": 7439,
      "deliver": 7440,
      "dez": 7441,
      "places": 7442,
      "gelt": 7443,
      "inc": 7444,
      "aust": 7445,
      "tte": 7446,
      "games": 7447,
      "sustainable": 7448,
      "ermoglichen": 7449,
      "umgebung": 7450,
      "stag": 7451,
      "medien": 7452,
      "insgesamt": 7453,
      "june": 7454,
      "thin": 7455,
      "consumers": 7456,
      "genannten": 7457,
      "klicken": 7458,
      "hare": 7459,
      "condu": 7460,
      "woll": 7461,
      "essern": 7462,
      "ante": 7463,
      "hall": 7464,
      "restr": 7465,
      "gehoren": 7466,
      "urlaub": 7467,
      "republic": 7468,
      "eigent": 7469,
      "supply": 7470,
      "nes": 7471,
      "paper": 7472,
      "enterprise": 7473,
      "seems": 7474,
      "arab": 7475,
      "vari": 7476,
      "bay": 7477,
      "achieved": 7478,
      "nungs": 7479,
      "buffe": 7480,
      "ah": 7481,
      "bern": 7482,
      "chair": 7483,
      "rechen": 7484,
      "steller": 7485,
      "audio": 7486,
      "suche": 7487,
      "discuss": 7488,
      "anforderungen": 7489,
      "behandlung": 7490,
      "deutschen": 7491,
      "brid": 7492,
      "ziert": 7493,
      "immig": 7494,
      "belg": 7495,
      "gold": 7496,
      "ff": 7497,
      "dete": 7498,
      "ruh": 7499,
      "higher": 7500,
      "vorhanden": 7501,
      "ubrigen": 7502,
      "direction": 7503,
      "itation": 7504,
      "soziale": 7505,
      "adres": 7506,
      "mp": 7507,
      "sl": 7508,
      "wandel": 7509,
      "nachdem": 7510,
      "allgemeinen": 7511,
      "regime": 7512,
      "gelegenheit": 7513,
      "samm": 7514,
      "karten": 7515,
      "asked": 7516,
      "closed": 7517,
      "osterreich": 7518,
      "deta": 7519,
      "increased": 7520,
      "viding": 7521,
      "innovative": 7522,
      "leb": 7523,
      "erweise": 7524,
      "vollig": 7525,
      "wettbewerb": 7526,
      "heil": 7527,
      "attem": 7528,
      "alp": 7529,
      "vehic": 7530,
      "amster": 7531,
      "york": 7532,
      "study": 7533,
      "amsterdam": 7534,
      "schließend": 7535,
      "summit": 7536,
      "gestal": 7537,
      "flor": 7538,
      "vergleich": 7539,
      "klass": 7540,
      "eigene": 7541,
      "allein": 7542,
      "property": 7543,
      "ny": 7544,
      "grundlegen": 7545,
      "relevant": 7546,
      "zahlreiche": 7547,
      "worth": 7548,
      "rats": 7549,
      "bilder": 7550,
      "sofort": 7551,
      "verbessern": 7552,
      "iveness": 7553,
      "refu": 7554,
      "gemeinschafts": 7555,
      "reviews": 7556,
      "domin": 7557,
      "leader": 7558,
      "wann": 7559,
      "sprachen": 7560,
      "keyword": 7561,
      "amt": 7562,
      "fine": 7563,
      "xis": 7564,
      "ature": 7565,
      "maschin": 7566,
      "village": 7567,
      "evalu": 7568,
      "wahrung": 7569,
      "lernen": 7570,
      "gi": 7571,
      "principles": 7572,
      "herzen": 7573,
      "neigh": 7574,
      "hle": 7575,
      "coast": 7576,
      "ery": 7577,
      "dienste": 7578,
      "dol": 7579,
      "anne": 7580,
      "effects": 7581,
      "lesen": 7582,
      "ret": 7583,
      "march": 7584,
      "hostels": 7585,
      "whose": 7586,
      "minder": 7587,
      "agreed": 7588,
      "notwendigkeit": 7589,
      "jet": 7590,
      "wiss": 7591,
      "bedur": 7592,
      "prefer": 7593,
      "gefunden": 7594,
      "dennoch": 7595,
      "child": 7596,
      "erfahrung": 7597,
      "accommodation": 7598,
      "hot": 7599,
      "danger": 7600,
      "opportunities": 7601,
      "erach": 7602,
      "nr": 7603,
      "rust": 7604,
      "unfortunately": 7605,
      "bute": 7606,
      "entwur": 7607,
      "master": 7608,
      "possibility": 7609,
      "theless": 7610,
      "carried": 7611,
      "klus": 7612,
      "obvious": 7613,
      "verfugen": 7614,
      "zeitpunkt": 7615,
      "wenden": 7616,
      "legit": 7617,
      "drive": 7618,
      "behind": 7619,
      "statist": 7620,
      "prasidenten": 7621,
      "bundes": 7622,
      "avoid": 7623,
      "ique": 7624,
      "ziell": 7625,
      "categor": 7626,
      "medium": 7627,
      "resort": 7628,
      "submitted": 7629,
      "draft": 7630,
      "damage": 7631,
      "einfuhrung": 7632,
      "atell": 7633,
      "reading": 7634,
      "sar": 7635,
      "arrange": 7636,
      "pressed": 7637,
      "rene": 7638,
      "versuchen": 7639,
      "commitment": 7640,
      "considered": 7641,
      "ously": 7642,
      "concept": 7643,
      "gewicht": 7644,
      "went": 7645,
      "diskut": 7646,
      "regierungen": 7647,
      "vollen": 7648,
      "spann": 7649,
      "dipl": 7650,
      "vorher": 7651,
      "bewusst": 7652,
      "verhaltnis": 7653,
      "written": 7654,
      "arbeitsplat": 7655,
      "matters": 7656,
      "großten": 7657,
      "ursprung": 7658,
      "capacity": 7659,
      "geist": 7660,
      "liebe": 7661,
      "maßig": 7662,
      "conven": 7663,
      "plain": 7664,
      "meinem": 7665,
      "dienen": 7666,
      "independent": 7667,
      "verhalten": 7668,
      "ites": 7669,
      "strom": 7670,
      "tritt": 7671,
      "inen": 7672,
      "anders": 7673,
      "exclusive": 7674,
      "gesprochen": 7675,
      "response": 7676,
      "bewertungen": 7677,
      "ney": 7678,
      "datei": 7679,
      "engl": 7680,
      "boden": 7681,
      "listen": 7682,
      "rede": 7683,
      "ume": 7684,
      "sourcen": 7685,
      "starker": 7686,
      "talk": 7687,
      "verstehen": 7688,
      "obtain": 7689,
      "minute": 7690,
      "shops": 7691,
      "ford": 7692,
      "aspects": 7693,
      "achtung": 7694,
      "providing": 7695,
      "record": 7696,
      "prehen": 7697,
      "charge": 7698,
      "emer": 7699,
      "spain": 7700,
      "32": 7701,
      "bri": 7702,
      "suite": 7703,
      "koso": 7704,
      "italy": 7705,
      "latest": 7706,
      "spirit": 7707,
      "dient": 7708,
      "mehrheit": 7709,
      "shown": 7710,
      "billion": 7711,
      "straßen": 7712,
      "pressure": 7713,
      "promote": 7714,
      "gebu": 7715,
      "suffer": 7716,
      "bestimmte": 7717,
      "verse": 7718,
      "buffet": 7719,
      "rought": 7720,
      "eindeut": 7721,
      "36": 7722,
      "offnet": 7723,
      "prepared": 7724,
      "ledig": 7725,
      "amen": 7726,
      "jur": 7727,
      "islam": 7728,
      "pension": 7729,
      "schweiz": 7730,
      "forum": 7731,
      "erfull": 7732,
      "maschinen": 7733,
      "fischerei": 7734,
      "ausfuhr": 7735,
      "pul": 7736,
      "sufficient": 7737,
      "wirksam": 7738,
      "zweite": 7739,
      "kenn": 7740,
      "movement": 7741,
      "lediglich": 7742,
      "tourist": 7743,
      "declar": 7744,
      "verwaltung": 7745,
      "asyl": 7746,
      "fahig": 7747,
      "fugen": 7748,
      "ases": 7749,
      "atmosphere": 7750,
      "easily": 7751,
      "hous": 7752,
      "erklarung": 7753,
      "binnenmarkt": 7754,
      "cha": 7755,
      "schriftlich": 7756,
      "precise": 7757,
      "vertreten": 7758,
      "mented": 7759,
      "gesamte": 7760,
      "erster": 7761,
      "enlargement": 7762,
      "fts": 7763,
      "reje": 7764,
      "italian": 7765,
      "inhalt": 7766,
      "artige": 7767,
      "swimming": 7768,
      "ausschuß": 7769,
      "außerst": 7770,
      "ficien": 7771,
      "review": 7772,
      "sole": 7773,
      "gl": 7774,
      "gewohn": 7775,
      "track": 7776,
      "waffen": 7777,
      "ressourcen": 7778,
      "samt": 7779,
      "core": 7780,
      "erkennen": 7781,
      "flache": 7782,
      "vit": 7783,
      "banken": 7784,
      "leave": 7785,
      "employe": 7786,
      "regulations": 7787,
      "zeuge": 7788,
      "zivil": 7789,
      "stie": 7790,
      "rechnung": 7791,
      "assistance": 7792,
      "flow": 7793,
      "entscheidungen": 7794,
      "perspe": 7795,
      "ograph": 7796,
      "criter": 7797,
      "stet": 7798,
      "client": 7799,
      "africa": 7800,
      "lege": 7801,
      "reached": 7802,
      "phase": 7803,
      "renov": 7804,
      "kuche": 7805,
      "protect": 7806,
      "reduce": 7807,
      "diplom": 7808,
      "gott": 7809,
      "protokoll": 7810,
      "virt": 7811,
      "1998": 7812,
      "nungen": 7813,
      "erien": 7814,
      "shof": 7815,
      "camer": 7816,
      "tures": 7817,
      "kontin": 7818,
      "ratsprasident": 7819,
      "kapital": 7820,
      "produced": 7821,
      "atl": 7822,
      "versor": 7823,
      "beob": 7824,
      "priority": 7825,
      "mains": 7826,
      "ns": 7827,
      "palast": 7828,
      "konfli": 7829,
      "quiet": 7830,
      "comprehen": 7831,
      "einrichtungen": 7832,
      "berat": 7833,
      "signal": 7834,
      "thous": 7835,
      "tier": 7836,
      "glauben": 7837,
      "stress": 7838,
      "british": 7839,
      "befur": 7840,
      "wine": 7841,
      "lake": 7842,
      "konstru": 7843,
      "purpose": 7844,
      "ills": 7845,
      "verpflich": 7846,
      "legung": 7847,
      "announ": 7848,
      "mix": 7849,
      "gewahrleisten": 7850,
      "decided": 7851,
      "secre": 7852,
      "bringt": 7853,
      "december": 7854,
      "bahnhof": 7855,
      "rand": 7856,
      "creating": 7857,
      "republik": 7858,
      "deep": 7859,
      "partnership": 7860,
      "erheb": 7861,
      "uk": 7862,
      "funding": 7863,
      "erfahren": 7864,
      "divers": 7865,
      "shopping": 7866,
      "effizien": 7867,
      "gebaude": 7868,
      "structural": 7869,
      "ausgestattet": 7870,
      "ukraine": 7871,
      "vertreter": 7872,
      "standing": 7873,
      "ften": 7874,
      "danke": 7875,
      "gerichte": 7876,
      "lok": 7877,
      "vorliegen": 7878,
      "wto": 7879,
      "betrieb": 7880,
      "wahrschein": 7881,
      "sales": 7882,
      "ides": 7883,
      "gives": 7884,
      "landwirtschaft": 7885,
      "architect": 7886,
      "cc": 7887,
      "laufen": 7888,
      "grenz": 7889,
      "ansatz": 7890,
      "bestimmten": 7891,
      "message": 7892,
      "association": 7893,
      "offiz": 7894,
      "kommissarin": 7895,
      "perform": 7896,
      "expl": 7897,
      "jahrhundert": 7898,
      "48": 7899,
      "aufgaben": 7900,
      "supported": 7901,
      "beschl": 7902,
      "stands": 7903,
      "contract": 7904,
      "surround": 7905,
      "kas": 7906,
      "remains": 7907,
      "task": 7908,
      "legislative": 7909,
      "deutsche": 7910,
      "arily": 7911,
      "75": 7912,
      "stoffe": 7913,
      "annual": 7914,
      "kosovo": 7915,
      "tip": 7916,
      "einschließlich": 7917,
      "else": 7918,
      "dir": 7919,
      "anderung": 7920,
      "sitzen": 7921,
      "activity": 7922,
      "zweitens": 7923,
      "setzungen": 7924,
      "vital": 7925,
      "repe": 7926,
      "studi": 7927,
      "cul": 7928,
      "selbstverstandlich": 7929,
      "fishing": 7930,
      "alb": 7931,
      "steps": 7932,
      "bege": 7933,
      "cement": 7934,
      "payment": 7935,
      "klart": 7936,
      "oben": 7937,
      "statement": 7938,
      "!!": 7939,
      "komplex": 7940,
      "bett": 7941,
      "technologies": 7942,
      "antworten": 7943,
      "dinge": 7944,
      "sibilities": 7945,
      "aufgenommen": 7946,
      "offnung": 7947,
      "fab": 7948,
      "cape": 7949,
      "investitionen": 7950,
      "unternehmens": 7951,
      "parking": 7952,
      "gessen": 7953,
      "alte": 7954,
      "encourage": 7955,
      "ased": 7956,
      "'.": 7957,
      "erachtens": 7958,
      "sort": 7959,
      "eigentlich": 7960,
      "tas": 7961,
      "plen": 7962,
      "square": 7963,
      "ari": 7964,
      "satell": 7965,
      "zufrieden": 7966,
      "furthermore": 7967,
      "berichts": 7968,
      "thousand": 7969,
      "presents": 7970,
      "browser": 7971,
      "vorgesehen": 7972,
      "einzige": 7973,
      "produce": 7974,
      "fuhrer": 7975,
      "scen": 7976,
      "fresh": 7977,
      "hit": 7978,
      "schlag": 7979,
      "somet": 7980,
      "schnitt": 7981,
      "firma": 7982,
      "late": 7983,
      "kennen": 7984,
      "vorzu": 7985,
      "feed": 7986,
      "month": 7987,
      "fortschritte": 7988,
      "vorbereit": 7989,
      "tren": 7990,
      "monet": 7991,
      "sonst": 7992,
      "schwach": 7993,
      "patient": 7994,
      "illegal": 7995,
      "freie": 7996,
      "ghan": 7997,
      "rock": 7998,
      "acceptable": 7999,
      "ology": 8000,
      "ierter": 8001,
      "erkann": 8002,
      "sitzung": 8003,
      "spit": 8004,
      "ques": 8005,
      "nive": 8006,
      "bulgar": 8007,
      "ausland": 8008,
      "mes": 8009,
      "astrop": 8010,
      "dezember": 8011,
      "sagte": 8012,
      "pointed": 8013,
      "mente": 8014,
      "ielt": 8015,
      "ault": 8016,
      "minimum": 8017,
      "....": 8018,
      "tp": 8019,
      "aking": 8020,
      "folgenden": 8021,
      "blue": 8022,
      "antly": 8023,
      "minor": 8024,
      "secure": 8025,
      "conclu": 8026,
      "paid": 8027,
      "administration": 8028,
      "ateral": 8029,
      "compon": 8030,
      "revolution": 8031,
      "erreich": 8032,
      "neues": 8033,
      "rimin": 8034,
      "markte": 8035,
      "volk": 8036,
      "werke": 8037,
      "brought": 8038,
      "official": 8039,
      "lower": 8040,
      "splan": 8041,
      "wol": 8042,
      "cham": 8043,
      "ea": 8044,
      "january": 8045,
      "leitet": 8046,
      "mac": 8047,
      "largest": 8048,
      "hi": 8049,
      "map": 8050,
      "ierenden": 8051,
      "solidarity": 8052,
      "relationship": 8053,
      "october": 8054,
      "bert": 8055,
      "categories": 8056,
      "types": 8057,
      "iens": 8058,
      "interesting": 8059,
      "reli": 8060,
      "river": 8061,
      "mediterranean": 8062,
      "gefordert": 8063,
      "genug": 8064,
      "dateien": 8065,
      "fruhstuck": 8066,
      "release": 8067,
      "formul": 8068,
      "voc": 8069,
      "solchen": 8070,
      "variety": 8071,
      "pover": 8072,
      "kombin": 8073,
      "afghan": 8074,
      "build": 8075,
      "beide": 8076,
      "nommen": 8077,
      "charak": 8078,
      "monitoring": 8079,
      "aufnahme": 8080,
      "metro": 8081,
      "anfrage": 8082,
      "journal": 8083,
      "distance": 8084,
      "paar": 8085,
      "wirken": 8086,
      "mers": 8087,
      "limit": 8088,
      "pleased": 8089,
      "leute": 8090,
      "aufenthalt": 8091,
      "touch": 8092,
      "haufig": 8093,
      "adem": 8094,
      "gering": 8095,
      "agency": 8096,
      "giving": 8097,
      "keits": 8098,
      "vertrauen": 8099,
      "keiner": 8100,
      "wid": 8101,
      "tains": 8102,
      "hop": 8103,
      "secondly": 8104,
      "starke": 8105,
      "ering": 8106,
      "europaischer": 8107,
      "opfer": 8108,
      "agriculture": 8109,
      "screen": 8110,
      "beitragen": 8111,
      "integrated": 8112,
      "curren": 8113,
      "lehr": 8114,
      "vergessen": 8115,
      "happy": 8116,
      "marz": 8117,
      "diejenigen": 8118,
      "spanish": 8119,
      "ai": 8120,
      "forget": 8121,
      "gebaut": 8122,
      "tom": 8123,
      "zweifel": 8124,
      "friends": 8125,
      "roll": 8126,
      "standpunkt": 8127,
      "historical": 8128,
      "spun": 8129,
      "craft": 8130,
      "won": 8131,
      "caf": 8132,
      "ads": 8133,
      "operating": 8134,
      "sometimes": 8135,
      "intell": 8136,
      "equal": 8137,
      "definition": 8138,
      "guter": 8139,
      "bear": 8140,
      "decken": 8141,
      "manager": 8142,
      "verbre": 8143,
      "brief": 8144,
      "images": 8145,
      "elektron": 8146,
      "agrar": 8147,
      "liter": 8148,
      "nied": 8149,
      "lob": 8150,
      "abend": 8151,
      "telle": 8152,
      "subsidi": 8153,
      "valle": 8154,
      "osop": 8155,
      "daily": 8156,
      "hause": 8157,
      "launch": 8158,
      "became": 8159,
      "38": 8160,
      "jun": 8161,
      "death": 8162,
      "vergangenen": 8163,
      "documents": 8164,
      "reisen": 8165,
      "color": 8166,
      "procedures": 8167,
      "regards": 8168,
      "ficiency": 8169,
      "rasse": 8170,
      "temporary": 8171,
      "lichkeiten": 8172,
      "moreover": 8173,
      "moderne": 8174,
      "frem": 8175,
      "demokratischen": 8176,
      "violence": 8177,
      "patent": 8178,
      "exact": 8179,
      "bezogen": 8180,
      "oktober": 8181,
      "berecht": 8182,
      "**": 8183,
      "dise": 8184,
      "started": 8185,
      "advantage": 8186,
      "dorf": 8187,
      "consist": 8188,
      "satze": 8189,
      "jem": 8190,
      "verring": 8191,
      "wenige": 8192,
      "teach": 8193,
      "elements": 8194,
      "suggest": 8195,
      "scientific": 8196,
      "allowed": 8197,
      "effort": 8198,
      "firmen": 8199,
      "machine": 8200,
      "kategorien": 8201,
      "wege": 8202,
      "istische": 8203,
      "offentliche": 8204,
      "braucht": 8205,
      "geschaft": 8206,
      "explo": 8207,
      "erinn": 8208,
      "options": 8209,
      "kredit": 8210,
      "transit": 8211,
      "aufmerksamkeit": 8212,
      "iber": 8213,
      "crimin": 8214,
      "nummer": 8215,
      "wald": 8216,
      "registr": 8217,
      "meter": 8218,
      "ax": 8219,
      "98": 8220,
      "firstly": 8221,
      "unft": 8222,
      "schwar": 8223,
      "fand": 8224,
      "organisations": 8225,
      "juli": 8226,
      "yond": 8227,
      "numerous": 8228,
      "beyond": 8229,
      "ereign": 8230,
      "ika": 8231,
      "clients": 8232,
      "operations": 8233,
      "valid": 8234,
      "forces": 8235,
      "cin": 8236,
      "provisions": 8237,
      "church": 8238,
      "provin": 8239,
      "beschreib": 8240,
      "corporate": 8241,
      "geber": 8242,
      "dates": 8243,
      "ays": 8244,
      "institutional": 8245,
      "analysis": 8246,
      "colour": 8247,
      "festival": 8248,
      "“,": 8249,
      "forschungs": 8250,
      "onnen": 8251,
      "wellness": 8252,
      "df": 8253,
      "compromise": 8254,
      "accord": 8255,
      "ico": 8256,
      "transparency": 8257,
      "ell": 8258,
      "lives": 8259,
      "decor": 8260,
      "rechten": 8261,
      "expe": 8262,
      "psy": 8263,
      "roh": 8264,
      "contribution": 8265,
      "finanzierung": 8266,
      "ram": 8267,
      "wichtiger": 8268,
      "vas": 8269,
      "fruher": 8270,
      "plane": 8271,
      "unmittel": 8272,
      "transa": 8273,
      "angeboten": 8274,
      "enzen": 8275,
      "season": 8276,
      "zweck": 8277,
      "july": 8278,
      "transparenz": 8279,
      "\"...": 8280,
      "gespra": 8281,
      "ausgaben": 8282,
      "served": 8283,
      "territor": 8284,
      "34": 8285,
      "erwarten": 8286,
      "preci": 8287,
      "bedurf": 8288,
      "praxis": 8289,
      "starting": 8290,
      "ktive": 8291,
      "dollar": 8292,
      "config": 8293,
      "01": 8294,
      "versicher": 8295,
      "serve": 8296,
      "poses": 8297,
      "portugal": 8298,
      "poverty": 8299,
      "ional": 8300,
      "rapid": 8301,
      "sco": 8302,
      "distric": 8303,
      "zeichnung": 8304,
      "1997": 8305,
      "nationen": 8306,
      "euch": 8307,
      "gastebewertungen": 8308,
      "teten": 8309,
      "erstens": 8310,
      "maximum": 8311,
      "vorsitz": 8312,
      "cook": 8313,
      "isol": 8314,
      "perman": 8315,
      "immediately": 8316,
      "paket": 8317,
      "criteria": 8318,
      "eingesetzt": 8319,
      "produkten": 8320,
      "wortern": 8321,
      "ech": 8322,
      "dia": 8323,
      "betracht": 8324,
      "fill": 8325,
      "reality": 8326,
      "occur": 8327,
      "philosop": 8328,
      "ially": 8329,
      "vac": 8330,
      "wee": 8331,
      "zert": 8332,
      "applied": 8333,
      "schonen": 8334,
      "tourism": 8335,
      "hafen": 8336,
      "tagesordnung": 8337,
      "betreffen": 8338,
      "adresse": 8339,
      "ourselves": 8340,
      "session": 8341,
      "itude": 8342,
      "offering": 8343,
      "wr": 8344,
      "bemuhungen": 8345,
      ".)": 8346,
      "wagen": 8347,
      "growing": 8348,
      "benefits": 8349,
      "charakter": 8350,
      "pful": 8351,
      "katastrop": 8352,
      "angene": 8353,
      "ista": 8354,
      "leiten": 8355,
      "helpful": 8356,
      "employees": 8357,
      "krafte": 8358,
      "opposition": 8359,
      "historic": 8360,
      "emissions": 8361,
      "burgern": 8362,
      "ky": 8363,
      "luß": 8364,
      "durchgefuhrt": 8365,
      "großte": 8366,
      "beziehen": 8367,
      "zin": 8368,
      "monetary": 8369,
      "holz": 8370,
      "benotigen": 8371,
      "37": 8372,
      "reference": 8373,
      "morrow": 8374,
      "studio": 8375,
      "januar": 8376,
      "verme": 8377,
      "highest": 8378,
      "bag": 8379,
      "dvd": 8380,
      "armut": 8381,
      "bein": 8382,
      "earth": 8383,
      "persons": 8384,
      "atom": 8385,
      "...\"": 8386,
      "offentlichkeit": 8387,
      "goes": 8388,
      "lled": 8389,
      "ktions": 8390,
      "getan": 8391,
      "watch": 8392,
      "ichen": 8393,
      "bilden": 8394,
      "gers": 8395,
      "programms": 8396,
      "verabsch": 8397,
      "plans": 8398,
      "aktuellen": 8399,
      "conflict": 8400,
      "boot": 8401,
      "kompro": 8402,
      "umb": 8403,
      "monaten": 8404,
      "bathroom": 8405,
      "mur": 8406,
      "funktionen": 8407,
      "sinne": 8408,
      "casino": 8409,
      "//": 8410,
      "tests": 8411,
      "heben": 8412,
      "sn": 8413,
      "schw": 8414,
      "occas": 8415,
      "kriterien": 8416,
      "gehend": 8417,
      "lebensmittel": 8418,
      "sorge": 8419,
      "nissen": 8420,
      "ini": 8421,
      "info": 8422,
      "humanitar": 8423,
      "analyse": 8424,
      "geleg": 8425,
      "partei": 8426,
      "steigen": 8427,
      "tomorrow": 8428,
      "iraq": 8429,
      "dev": 8430,
      "wurdig": 8431,
      "wahren": 8432,
      "regierungs": 8433,
      "destin": 8434,
      "players": 8435,
      "dritt": 8436,
      "kro": 8437,
      "useful": 8438,
      "lt": 8439,
      "gluck": 8440,
      "theor": 8441,
      "ley": 8442,
      "vorschlagen": 8443,
      "kannst": 8444,
      "target": 8445,
      "eher": 8446,
      "poker": 8447,
      "langfrist": 8448,
      "existen": 8449,
      "elections": 8450,
      "ony": 8451,
      "challenges": 8452,
      "auffassung": 8453,
      "uz": 8454,
      "processes": 8455,
      "walking": 8456,
      "blog": 8457,
      "para": 8458,
      "comprehensive": 8459,
      "practical": 8460,
      "challenge": 8461,
      "auern": 8462,
      "solidaritat": 8463,
      "efficiency": 8464,
      "geworden": 8465,
      "absicht": 8466,
      "exception": 8467,
      "grundet": 8468,
      "ql": 8469,
      "zeichnen": 8470,
      "thought": 8471,
      "erneut": 8472,
      "prasidentschaft": 8473,
      "gebieten": 8474,
      "nachbar": 8475,
      "ero": 8476,
      "urance": 8477,
      "waste": 8478,
      "adjust": 8479,
      "terrorism": 8480,
      "freuen": 8481,
      "select": 8482,
      "geschaffen": 8483,
      "beau": 8484,
      "richtige": 8485,
      "honour": 8486,
      "foundation": 8487,
      "technischen": 8488,
      "hund": 8489,
      "unten": 8490,
      "bren": 8491,
      "guard": 8492,
      "sonder": 8493,
      "400": 8494,
      "izin": 8495,
      "99": 8496,
      "radi": 8497,
      "victim": 8498,
      "comb": 8499,
      "mex": 8500,
      "andert": 8501,
      "bauen": 8502,
      "expert": 8503,
      "immobil": 8504,
      "schreiben": 8505,
      "straf": 8506,
      "leitung": 8507,
      "colleagues": 8508,
      "poll": 8509,
      "scht": 8510,
      "plug": 8511,
      "hoben": 8512,
      "150": 8513,
      "pictures": 8514,
      "cohes": 8515,
      "medic": 8516,
      "ehem": 8517,
      "update": 8518,
      "exer": 8519,
      "gesche": 8520,
      "collection": 8521,
      "sechs": 8522,
      "intent": 8523,
      "saying": 8524,
      "federal": 8525,
      "ideas": 8526,
      "dun": 8527,
      "parag": 8528,
      "tab": 8529,
      "taus": 8530,
      "lern": 8531,
      "mechanis": 8532,
      "vul": 8533,
      "ara": 8534,
      "consequences": 8535,
      "ussen": 8536,
      "prozent": 8537,
      "austria": 8538,
      "33": 8539,
      "burgerinnen": 8540,
      "entsprechend": 8541,
      "goog": 8542,
      "mittler": 8543,
      "palest": 8544,
      "kitchen": 8545,
      "sammlung": 8546,
      "einrichtung": 8547,
      "neighbour": 8548,
      "verstanden": 8549,
      "eastern": 8550,
      "kunstler": 8551,
      "wiederhol": 8552,
      "hilfen": 8553,
      "otherwise": 8554,
      "cis": 8555,
      "fein": 8556,
      "advert": 8557,
      "kommunikation": 8558,
      "offered": 8559,
      "gewahl": 8560,
      "semin": 8561,
      "zuver": 8562,
      "atmosphare": 8563,
      "begruße": 8564,
      "deine": 8565,
      "rural": 8566,
      "prime": 8567,
      "delegation": 8568,
      "born": 8569,
      "anspruch": 8570,
      "entsprechenden": 8571,
      "ita": 8572,
      "verantwortlich": 8573,
      "campa": 8574,
      "microsoft": 8575,
      "reduction": 8576,
      "lizen": 8577,
      "published": 8578,
      "aspekte": 8579,
      "parteien": 8580,
      "effizient": 8581,
      "afrika": 8582,
      "wanted": 8583,
      "worldwide": 8584,
      "zufuhren": 8585,
      "ione": 8586,
      "voting": 8587,
      "gangs": 8588,
      "begin": 8589,
      "rome": 8590,
      "spannen": 8591,
      "welches": 8592,
      "pflan": 8593,
      "herstellung": 8594,
      "pursu": 8595,
      "fitness": 8596,
      "wirkung": 8597,
      "sichern": 8598,
      "behalten": 8599,
      "modified": 8600,
      "yer": 8601,
      "bildungs": 8602,
      "spring": 8603,
      "cont": 8604,
      "panor": 8605,
      "ausgezeich": 8606,
      "schlusselwortern": 8607,
      "medizin": 8608,
      "zahlung": 8609,
      "bedingt": 8610,
      "quis": 8611,
      "bars": 8612,
      "tief": 8613,
      "google": 8614,
      "konzept": 8615,
      "button": 8616,
      "irak": 8617,
      "campaign": 8618,
      "cities": 8619,
      "nahr": 8620,
      "ality": 8621,
      "besuchen": 8622,
      "mindes": 8623,
      "sachen": 8624,
      "requires": 8625,
      "idi": 8626,
      "morning": 8627,
      "behandelt": 8628,
      "verhindern": 8629,
      "schutzen": 8630,
      "weeks": 8631,
      "terrace": 8632,
      "erfolgt": 8633,
      "circum": 8634,
      "php": 8635,
      "selection": 8636,
      "discrimin": 8637,
      "languages": 8638,
      "gewesen": 8639,
      "produktions": 8640,
      "entwurf": 8641,
      "ktiv": 8642,
      "usion": 8643,
      "god": 8644,
      "accession": 8645,
      "igungen": 8646,
      "cel": 8647,
      "meaning": 8648,
      "bol": 8649,
      "berucksichtigt": 8650,
      "conver": 8651,
      "195": 8652,
      "beginnen": 8653,
      "sle": 8654,
      "leiden": 8655,
      "ologie": 8656,
      "authority": 8657,
      "ierende": 8658,
      "implemented": 8659,
      "visitors": 8660,
      "http": 8661,
      "doubt": 8662,
      "avi": 8663,
      "regelung": 8664,
      "tan": 8665,
      "betriebs": 8666,
      "):": 8667,
      "probably": 8668,
      "jam": 8669,
      "endlich": 8670,
      "letzte": 8671,
      "anything": 8672,
      "convin": 8673,
      "remember": 8674,
      "relating": 8675,
      "anderem": 8676,
      "veranstalt": 8677,
      "overall": 8678,
      "john": 8679,
      "1996": 8680,
      "sym": 8681,
      "ias": 8682,
      "estic": 8683,
      "mol": 8684,
      "kurs": 8685,
      "processing": 8686,
      "wahrscheinlich": 8687,
      "kompon": 8688,
      "komplett": 8689,
      "wunsche": 8690,
      "angelegenheiten": 8691,
      "wien": 8692,
      "changed": 8693,
      "crucial": 8694,
      "ense": 8695,
      "{{": 8696,
      "nar": 8697,
      "milliar": 8698,
      "trust": 8699,
      "swiss": 8700,
      "zumindest": 8701,
      "eleg": 8702,
      "mund": 8703,
      "rauch": 8704,
      "pak": 8705,
      "versucht": 8706,
      "cohesion": 8707,
      "farmers": 8708,
      "ties": 8709,
      "congratulate": 8710,
      "occup": 8711,
      "cry": 8712,
      "fisheries": 8713,
      "meister": 8714,
      "erung": 8715,
      "strategic": 8716,
      "schule": 8717,
      "ader": 8718,
      "geschrieben": 8719,
      "infl": 8720,
      "weist": 8721,
      "forest": 8722,
      "erfahrungen": 8723,
      "kulture": 8724,
      "rain": 8725,
      "vere": 8726,
      "faktor": 8727,
      "flucht": 8728,
      "critic": 8729,
      "restor": 8730,
      "tot": 8731,
      "anerken": 8732,
      "kons": 8733,
      "langt": 8734,
      "catal": 8735,
      "95": 8736,
      "abor": 8737,
      "essere": 8738,
      "instrumente": 8739,
      "platze": 8740,
      "niveau": 8741,
      "fax": 8742,
      "reformen": 8743,
      "interested": 8744,
      "alone": 8745,
      "mie": 8746,
      "spanien": 8747,
      "intervention": 8748,
      "laut": 8749,
      "erklart": 8750,
      "sterne": 8751,
      "caused": 8752,
      "ischem": 8753,
      "gesellschaften": 8754,
      "vereinbarung": 8755,
      "97": 8756,
      "abschluss": 8757,
      "icated": 8758,
      "erhol": 8759,
      "ying": 8760,
      "hervorragen": 8761,
      "opening": 8762,
      "anstreng": 8763,
      "historischen": 8764,
      "kompeten": 8765,
      "seg": 8766,
      "usw": 8767,
      "lou": 8768,
      "uberhaupt": 8769,
      "homepage": 8770,
      "budgetary": 8771,
      "siehe": 8772,
      "solar": 8773,
      "gir": 8774,
      "rechtsvorschriften": 8775,
      "ilen": 8776,
      "parame": 8777,
      "okon": 8778,
      "modernen": 8779,
      "stehenden": 8780,
      "save": 8781,
      "ez": 8782,
      "motion": 8783,
      "erfullen": 8784,
      "currency": 8785,
      "frag": 8786,
      "candid": 8787,
      "dep": 8788,
      "vollstandig": 8789,
      "gewis": 8790,
      "georg": 8791,
      "außerhalb": 8792,
      "frankfur": 8793,
      "zusatzlich": 8794,
      "kontext": 8795,
      "concent": 8796,
      "korre": 8797,
      "accordance": 8798,
      "medical": 8799,
      "fields": 8800,
      "chines": 8801,
      "ifik": 8802,
      "menge": 8803,
      "adopt": 8804,
      "nevertheless": 8805,
      "adv": 8806,
      "methods": 8807,
      "meld": 8808,
      "hersteller": 8809,
      "calls": 8810,
      "accoun": 8811,
      "schiff": 8812,
      "chinese": 8813,
      "electric": 8814,
      "electronic": 8815,
      "aries": 8816,
      "senden": 8817,
      "gor": 8818,
      "terrorismus": 8819,
      "',": 8820,
      "interpret": 8821,
      "wild": 8822,
      "mogen": 8823,
      "extent": 8824,
      "aver": 8825,
      "moral": 8826,
      "scale": 8827,
      "aktual": 8828,
      "zieren": 8829,
      "flexible": 8830,
      "ausbildung": 8831,
      "businesses": 8832,
      "zahlreichen": 8833,
      "kenntnis": 8834,
      "schone": 8835,
      "datab": 8836,
      "einfluss": 8837,
      "stattung": 8838,
      "austausch": 8839,
      "wesentlich": 8840,
      "fla": 8841,
      "losigkeit": 8842,
      "cs": 8843,
      "contribut": 8844,
      "alitat": 8845,
      "banks": 8846,
      "extens": 8847,
      "tut": 8848,
      "websites": 8849,
      "beschreibung": 8850,
      "argument": 8851,
      "began": 8852,
      "getroffen": 8853,
      "dige": 8854,
      "schwierigkeiten": 8855,
      "russian": 8856,
      "usually": 8857,
      "camp": 8858,
      "powers": 8859,
      "voice": 8860,
      "likely": 8861,
      "prop": 8862,
      "berichterstatterin": 8863,
      "iling": 8864,
      "roma": 8865,
      "jer": 8866,
      "kampfen": 8867,
      "covered": 8868,
      "stets": 8869,
      "police": 8870,
      "vergangenheit": 8871,
      "investig": 8872,
      "96": 8873,
      "negative": 8874,
      "}}": 8875,
      "command": 8876,
      "geru": 8877,
      "compe": 8878,
      "infrastruktur": 8879,
      "gebiete": 8880,
      "nationale": 8881,
      "erinnern": 8882,
      "glas": 8883,
      "sectors": 8884,
      "serb": 8885,
      "menschenrechts": 8886,
      "behinder": 8887,
      "steu": 8888,
      "richtlinien": 8889,
      "positions": 8890,
      "ack": 8891,
      "erwartet": 8892,
      "verpflichtet": 8893,
      "reception": 8894,
      "cele": 8895,
      "jeweiligen": 8896,
      "gerate": 8897,
      "versorgung": 8898,
      "rise": 8899,
      "roy": 8900,
      "labor": 8901,
      "haup": 8902,
      "nato": 8903,
      "zusetzen": 8904,
      "figur": 8905,
      "reis": 8906,
      "representatives": 8907,
      "fallt": 8908,
      "feature": 8909,
      "execut": 8910,
      "44": 8911,
      "seven": 8912,
      "manufactur": 8913,
      "borders": 8914,
      "emission": 8915,
      "stur": 8916,
      "appreci": 8917,
      "seines": 8918,
      "extensive": 8919,
      "hood": 8920,
      "verpflichtungen": 8921,
      "technologien": 8922,
      "accepted": 8923,
      "personlichen": 8924,
      "defence": 8925,
      "teilnehmer": 8926,
      "entgegen": 8927,
      "lier": 8928,
      "director": 8929,
      "separate": 8930,
      "absolutely": 8931,
      "standig": 8932,
      "amerikanischen": 8933,
      "students": 8934,
      "stande": 8935,
      "bade": 8936,
      "angelegenheit": 8937,
      "worte": 8938,
      "bessere": 8939,
      "mini": 8940,
      "messe": 8941,
      "anwendungen": 8942,
      "fug": 8943,
      "surpr": 8944,
      "tten": 8945,
      "”.": 8946,
      "uner": 8947,
      "critical": 8948,
      "urban": 8949,
      "bib": 8950,
      "mitten": 8951,
      "foll": 8952,
      "sitting": 8953,
      "osten": 8954,
      "reag": 8955,
      "antrag": 8956,
      "science": 8957,
      "quant": 8958,
      "mc": 8959,
      "trage": 8960,
      "vorgehen": 8961,
      "trying": 8962,
      "delivery": 8963,
      "gap": 8964,
      "herunter": 8965,
      "boten": 8966,
      "leaders": 8967,
      "berichte": 8968,
      "genuine": 8969,
      "planning": 8970,
      "ausschließlich": 8971,
      "einwander": 8972,
      "rankt": 8973,
      "finanziellen": 8974,
      "rant": 8975,
      "annahme": 8976,
      "gekommen": 8977,
      "ireland": 8978,
      "deca": 8979,
      "erlaubt": 8980,
      "hing": 8981,
      "running": 8982,
      "verstar": 8983,
      "edition": 8984,
      "district": 8985,
      "genutzt": 8986,
      "deten": 8987,
      "erinner": 8988,
      "weiten": 8989,
      "sauna": 8990,
      "taste": 8991,
      "bitten": 8992,
      "provision": 8993,
      "idee": 8994,
      "influence": 8995,
      "beruf": 8996,
      "chi": 8997,
      "crime": 8998,
      "urgent": 8999,
      "kul": 9000,
      "spiele": 9001,
      "einkauf": 9002,
      "raised": 9003,
      "alli": 9004,
      "barer": 9005,
      "laws": 9006,
      "eingesch": 9007,
      "anteil": 9008,
      "shower": 9009,
      "niederland": 9010,
      "nos": 9011,
      "herausforderungen": 9012,
      "izing": 9013,
      "salz": 9014,
      "39": 9015,
      "boo": 9016,
      "aktionen": 9017,
      "abe": 9018,
      "fellow": 9019,
      "administrative": 9020,
      "dach": 9021,
      "abschließend": 9022,
      "konsequ": 9023,
      "expected": 9024,
      "heutigen": 9025,
      "benutzen": 9026,
      "orte": 9027,
      "beruhm": 9028,
      "luxem": 9029,
      "attle": 9030,
      "nachten": 9031,
      "parliamentary": 9032,
      "operate": 9033,
      "ehemal": 9034,
      "pin": 9035,
      "iker": 9036,
      "privaten": 9037,
      "asia": 9038,
      "sens": 9039,
      "max": 9040,
      "anda": 9041,
      "fing": 9042,
      "christian": 9043,
      "ws": 9044,
      "effizienz": 9045,
      "none": 9046,
      "worked": 9047,
      "demands": 9048,
      "scope": 9049,
      "namely": 9050,
      "diskrimin": 9051,
      "cze": 9052,
      "affected": 9053,
      "ray": 9054,
      "verfassung": 9055,
      "genehm": 9056,
      "bourg": 9057,
      "%.": 9058,
      "tert": 9059,
      "fuhrte": 9060,
      "suitable": 9061,
      "ona": 9062,
      "lly": 9063,
      "ministers": 9064,
      "nom": 9065,
      "involve": 9066,
      "stone": 9067,
      "heard": 9068,
      "beziehung": 9069,
      "ressed": 9070,
      "intended": 9071,
      "evening": 9072,
      "willkommen": 9073,
      "utze": 9074,
      "mitteilung": 9075,
      "tragt": 9076,
      "automatisch": 9077,
      "caus": 9078,
      "tie": 9079,
      "64": 9080,
      "schic": 9081,
      "anci": 9082,
      "hinsicht": 9083,
      "comments": 9084,
      "wea": 9085,
      "amerika": 9086,
      "ubernehmen": 9087,
      "erns": 9088,
      "initiatives": 9089,
      "attack": 9090,
      "bene": 9091,
      "sorg": 9092,
      "wrong": 9093,
      "goal": 9094,
      "bequ": 9095,
      "viertel": 9096,
      "founded": 9097,
      "chron": 9098,
      "denk": 9099,
      "schuld": 9100,
      "fly": 9101,
      "yourself": 9102,
      "zusatzliche": 9103,
      "award": 9104,
      "elegant": 9105,
      "families": 9106,
      "forced": 9107,
      "wesentlichen": 9108,
      "ette": 9109,
      "kirche": 9110,
      "inhalte": 9111,
      "selben": 9112,
      "improved": 9113,
      "costa": 9114,
      "arbeitsplatze": 9115,
      "austr": 9116,
      "ruption": 9117,
      "shut": 9118,
      "sugges": 9119,
      "circumst": 9120,
      "talking": 9121,
      "mont": 9122,
      "ferner": 9123,
      "schem": 9124,
      "terrasse": 9125,
      "gain": 9126,
      "kaum": 9127,
      "organization": 9128,
      "speziell": 9129,
      "erleben": 9130,
      "technische": 9131,
      "dead": 9132,
      "ilitat": 9133,
      "advanced": 9134,
      "getragen": 9135,
      "inge": 9136,
      "coffe": 9137,
      "hnung": 9138,
      "bom": 9139,
      "mainly": 9140,
      "speaking": 9141,
      "aktuelle": 9142,
      "ruf": 9143,
      "mart": 9144,
      "gleiche": 9145,
      "store": 9146,
      "lebt": 9147,
      "ador": 9148,
      "preser": 9149,
      "ighted": 9150,
      "entschieden": 9151,
      "celebr": 9152,
      "vorteile": 9153,
      "olym": 9154,
      "automatically": 9155,
      "libr": 9156,
      "afghanistan": 9157,
      "furn": 9158,
      "zep": 9159,
      "expressed": 9160,
      "danach": 9161,
      "respekt": 9162,
      "milliarden": 9163,
      "veroffentlich": 9164,
      "55": 9165,
      "sensit": 9166,
      "proceed": 9167,
      "tatigkeit": 9168,
      "landschaft": 9169,
      "committed": 9170,
      "sagt": 9171,
      "wil": 9172,
      "confidence": 9173,
      "netzwerk": 9174,
      "1990": 9175,
      "begrußen": 9176,
      "08": 9177,
      "zig": 9178,
      "approved": 9179,
      "secret": 9180,
      "vorsitzen": 9181,
      "tauch": 9182,
      "stated": 9183,
      "risiko": 9184,
      "motiv": 9185,
      "beha": 9186,
      "anstrengungen": 9187,
      "infrastructure": 9188,
      "viet": 9189,
      "besucher": 9190,
      "zeitraum": 9191,
      "anpass": 9192,
      "sehens": 9193,
      "criminal": 9194,
      "darstellt": 9195,
      "besonderen": 9196,
      "specifically": 9197,
      "mere": 9198,
      "trave": 9199,
      "gefuhl": 9200,
      "großere": 9201,
      "chine": 9202,
      "filter": 9203,
      "engagement": 9204,
      "sell": 9205,
      "mitte": 9206,
      "ils": 9207,
      "inspe": 9208,
      "benutzt": 9209,
      "moglicherweise": 9210,
      "==": 9211,
      "py": 9212,
      "champ": 9213,
      "legitim": 9214,
      "fell": 9215,
      "friedens": 9216,
      "methoden": 9217,
      "poten": 9218,
      "kts": 9219,
      "inside": 9220,
      "eindeutig": 9221,
      "entertain": 9222,
      "breite": 9223,
      "understanding": 9224,
      "nahm": 9225,
      "unemployment": 9226,
      "titel": 9227,
      "protected": 9228,
      "gemut": 9229,
      "structures": 9230,
      "storage": 9231,
      "okonom": 9232,
      "competitive": 9233,
      "tech": 9234,
      "maga": 9235,
      "dringend": 9236,
      "entry": 9237,
      "enorm": 9238,
      "camera": 9239,
      "respond": 9240,
      "ruhe": 9241,
      "getting": 9242,
      "raume": 9243,
      "mindestens": 9244,
      "schlagen": 9245,
      "regen": 9246,
      "grenze": 9247,
      "participation": 9248,
      "wurd": 9249,
      "verstandnis": 9250,
      "bridge": 9251,
      "expens": 9252,
      "competen": 9253,
      "increasingly": 9254,
      "beitritts": 9255,
      "init": 9256,
      "verwaltungs": 9257,
      "stieg": 9258,
      "cycl": 9259,
      "bemerk": 9260,
      "reforms": 9261,
      "audit": 9262,
      "bequem": 9263,
      "lio": 9264,
      "resist": 9265,
      "transparent": 9266,
      "promotion": 9267,
      "kompromiss": 9268,
      "gestellten": 9269,
      "“.": 9270,
      "sources": 9271,
      "whom": 9272,
      "buted": 9273,
      "reduced": 9274,
      "kept": 9275,
      "ato": 9276,
      "eingehen": 9277,
      "autor": 9278,
      "hostel": 9279,
      "grad": 9280,
      "falsch": 9281,
      "ported": 9282,
      "stream": 9283,
      "hinweisen": 9284,
      "ud": 9285,
      "decide": 9286,
      "zustimmung": 9287,
      "conclusion": 9288,
      "glaub": 9289,
      "album": 9290,
      "cult": 9291,
      "functions": 9292,
      "lobby": 9293,
      "circumstances": 9294,
      "martin": 9295,
      "hner": 9296,
      "finde": 9297,
      "supports": 9298,
      "powerful": 9299,
      "unbedingt": 9300,
      "bell": 9301,
      "expand": 9302,
      "houses": 9303,
      "convenient": 9304,
      "anerkennung": 9305,
      "pflicht": 9306,
      "dos": 9307,
      "networks": 9308,
      "cards": 9309,
      "visual": 9310,
      "marks": 9311,
      "attempt": 9312,
      "blin": 9313,
      "respective": 9314,
      "assessment": 9315,
      "paragraph": 9316,
      "wing": 9317,
      "conce": 9318,
      "durchfuhrung": 9319,
      "fanta": 9320,
      "relative": 9321,
      "ensuring": 9322,
      "erleich": 9323,
      "deckt": 9324,
      "dritten": 9325,
      "pdf": 9326,
      "entspricht": 9327,
      "pleasant": 9328,
      "chtet": 9329,
      "galler": 9330,
      "balan": 9331,
      "finn": 9332,
      "mio": 9333,
      "starkung": 9334,
      "kopf": 9335,
      "verfugbar": 9336,
      "fuhrten": 9337,
      "studie": 9338,
      "beschlossen": 9339,
      "managed": 9340,
      "hauses": 9341,
      "programs": 9342,
      "cript": 9343,
      "paralle": 9344,
      "genannt": 9345,
      "monat": 9346,
      "opened": 9347,
      "label": 9348,
      "eindruck": 9349,
      "detailed": 9350,
      "beds": 9351,
      "mutter": 9352,
      "ucht": 9353,
      "plants": 9354,
      "route": 9355,
      "quate": 9356,
      "immigration": 9357,
      "arz": 9358,
      "dram": 9359,
      "tatig": 9360,
      "1995": 9361,
      "folger": 9362,
      "schlaf": 9363,
      "willing": 9364,
      "wonderful": 9365,
      "castle": 9366,
      "says": 9367,
      "priorities": 9368,
      "victims": 9369,
      "spot": 9370,
      "hochwert": 9371,
      "animals": 9372,
      "quellen": 9373,
      "presse": 9374,
      "translation": 9375,
      "snow": 9376,
      "hardware": 9377,
      "serie": 9378,
      "kers": 9379,
      "estate": 9380,
      "2020": 9381,
      "spacious": 9382,
      "uberzeugt": 9383,
      "farben": 9384,
      "schreiten": 9385,
      "sobald": 9386,
      "austral": 9387,
      "initiativen": 9388,
      "entschließungsantra": 9389,
      "gewiesen": 9390,
      "hoffen": 9391,
      "spart": 9392,
      "satisf": 9393,
      "andererseits": 9394,
      "telephone": 9395,
      "ausreich": 9396,
      "pes": 9397,
      "palestin": 9398,
      "therap": 9399,
      "contribute": 9400,
      "hintergrund": 9401,
      "guidelines": 9402,
      "naher": 9403,
      "speicher": 9404,
      "beauty": 9405,
      "played": 9406,
      "introduced": 9407,
      "niemand": 9408,
      "hut": 9409,
      "frankfurt": 9410,
      "navig": 9411,
      "klang": 9412,
      "klare": 9413,
      "kreis": 9414,
      "ids": 9415,
      "trend": 9416,
      "marken": 9417,
      "luxur": 9418,
      "monate": 9419,
      "berucksichtigen": 9420,
      "”,": 9421,
      "teuer": 9422,
      "ielle": 9423,
      "india": 9424,
      "sad": 9425,
      "imper": 9426,
      "learning": 9427,
      "65": 9428,
      "index": 9429,
      "exhibition": 9430,
      "belar": 9431,
      "laufe": 9432,
      "flash": 9433,
      "vorgelegt": 9434,
      "umin": 9435,
      "residence": 9436,
      "transform": 9437,
      "introduction": 9438,
      "coffee": 9439,
      "institute": 9440,
      "09": 9441,
      "crete": 9442,
      "erwahnt": 9443,
      "cers": 9444,
      "sicherlich": 9445,
      "47": 9446,
      "formular": 9447,
      "hagen": 9448,
      "prag": 9449,
      "communications": 9450,
      "ache": 9451,
      "haupts": 9452,
      "tabled": 9453,
      "entsprechende": 9454,
      "entweder": 9455,
      "eit": 9456,
      "prufen": 9457,
      "lounge": 9458,
      "traum": 9459,
      "49": 9460,
      "vien": 9461,
      "gezeigt": 9462,
      "globalen": 9463,
      "reserve": 9464,
      "effectively": 9465,
      "weap": 9466,
      "listed": 9467,
      "vorteil": 9468,
      "zuverlass": 9469,
      "thousands": 9470,
      "linked": 9471,
      "dich": 9472,
      "liefert": 9473,
      "gradu": 9474,
      "angegeben": 9475,
      "pendence": 9476,
      "angaben": 9477,
      "unterschiedlichen": 9478,
      "defined": 9479,
      "studies": 9480,
      "trotzdem": 9481,
      "mittelmeer": 9482,
      "ichert": 9483,
      "precisely": 9484,
      "sale": 9485,
      "interface": 9486,
      "instru": 9487,
      "larger": 9488,
      "imag": 9489,
      "disast": 9490,
      "votes": 9491,
      "cm": 9492,
      "zuletzt": 9493,
      "northern": 9494,
      "://": 9495,
      "artigen": 9496,
      "animal": 9497,
      "bedro": 9498,
      "erstellen": 9499,
      "tos": 9500,
      "jene": 9501,
      "warten": 9502,
      "smoking": 9503,
      "exactly": 9504,
      "pict": 9505,
      "cio": 9506,
      "finance": 9507,
      "finanzielle": 9508,
      "ox": 9509,
      "belieb": 9510,
      "generally": 9511,
      "anyone": 9512,
      "vertrie": 9513,
      "nachfolgen": 9514,
      "spunkt": 9515,
      "anbie": 9516,
      "assemb": 9517,
      "pac": 9518,
      "mik": 9519,
      "bruch": 9520,
      "prison": 9521,
      "sichten": 9522,
      "purposes": 9523,
      "britann": 9524,
      "breit": 9525,
      "systemen": 9526,
      "erd": 9527,
      "heav": 9528,
      "czech": 9529,
      "duty": 9530,
      "iation": 9531,
      "taglich": 9532,
      "selected": 9533,
      "bing": 9534,
      "confirm": 9535,
      "methode": 9536,
      "offnen": 9537,
      "mehreren": 9538,
      "appar": 9539,
      "07": 9540,
      "comment": 9541,
      "pakistan": 9542,
      "trip": 9543,
      "angebote": 9544,
      "picture": 9545,
      "meetings": 9546,
      "enterprises": 9547,
      "tennis": 9548,
      "darunter": 9549,
      "agentur": 9550,
      "lock": 9551,
      "exc": 9552,
      "schwierig": 9553,
      "05": 9554,
      "jose": 9555,
      "suppl": 9556,
      "polize": 9557,
      "earlier": 9558,
      "geeignet": 9559,
      "03": 9560,
      "referred": 9561,
      "lieb": 9562,
      "klasse": 9563,
      "uals": 9564,
      "iser": 9565,
      "kingdom": 9566,
      "zentrale": 9567,
      "erkannt": 9568,
      "gehalten": 9569,
      "usten": 9570,
      "gb": 9571,
      "aimed": 9572,
      "akzeptieren": 9573,
      "metres": 9574,
      "bestimmt": 9575,
      "gerichtshof": 9576,
      "immen": 9577,
      "discussions": 9578,
      "theater": 9579,
      "cuis": 9580,
      "bush": 9581,
      "ktiven": 9582,
      "fenster": 9583,
      "risks": 9584,
      "rufen": 9585,
      "ticket": 9586,
      "bewertung": 9587,
      "omet": 9588,
      "ola": 9589,
      "visa": 9590,
      "lieben": 9591,
      "kapaz": 9592,
      "entstehen": 9593,
      "experts": 9594,
      "february": 9595,
      "gutes": 9596,
      "pair": 9597,
      "developments": 9598,
      "betru": 9599,
      "stable": 9600,
      "restrict": 9601,
      "oo": 9602,
      "zerland": 9603,
      "griechen": 9604,
      "kandid": 9605,
      "becoming": 9606,
      "diag": 9607,
      "unabhangig": 9608,
      "playing": 9609,
      "books": 9610,
      "angesprochen": 9611,
      "measure": 9612,
      "ignor": 9613,
      "andal": 9614,
      "proport": 9615,
      "continent": 9616,
      "actual": 9617,
      "refuge": 9618,
      "cars": 9619,
      "ernst": 9620,
      "zeption": 9621,
      "purchase": 9622,
      "income": 9623,
      "verbin": 9624,
      "discus": 9625,
      "subsidiar": 9626,
      "kilome": 9627,
      "stechn": 9628,
      "grade": 9629,
      "gewinn": 9630,
      "bestehenden": 9631,
      "werten": 9632,
      "unless": 9633,
      "eingerichtet": 9634,
      "alloc": 9635,
      "television": 9636,
      "klaren": 9637,
      "represents": 9638,
      "tter": 9639,
      "kommenden": 9640,
      "kritik": 9641,
      "sicherzustellen": 9642,
      "memory": 9643,
      "discussed": 9644,
      "switzerland": 9645,
      "buildings": 9646,
      "veranderungen": 9647,
      "valley": 9648,
      "engineering": 9649,
      "zimmern": 9650,
      "wants": 9651,
      "pati": 9652,
      "connected": 9653,
      "lauft": 9654,
      "ivity": 9655,
      "46": 9656,
      "zau": 9657,
      "veget": 9658,
      "tourismus": 9659,
      "factor": 9660,
      "advis": 9661,
      "governance": 9662,
      "istics": 9663,
      "diesel": 9664,
      "fixed": 9665,
      "themat": 9666,
      "opa": 9667,
      "wom": 9668,
      "anderes": 9669,
      "ational": 9670,
      "kindern": 9671,
      "typical": 9672,
      "gnu": 9673,
      "manch": 9674,
      "supporting": 9675,
      "bewegung": 9676,
      "improving": 9677,
      "welcher": 9678,
      "phr": 9679,
      "components": 9680,
      "urs": 9681,
      "mack": 9682,
      "psych": 9683,
      "trading": 9684,
      "vereinfach": 9685,
      "dagegen": 9686,
      "pm": 9687,
      "diversity": 9688,
      "hands": 9689,
      "arischen": 9690,
      "speech": 9691,
      "erzielt": 9692,
      "geograph": 9693,
      "notwendigen": 9694,
      "vereinten": 9695,
      "voller": 9696,
      "saw": 9697,
      "rasch": 9698,
      "discrimination": 9699,
      "debt": 9700,
      "degree": 9701,
      "destro": 9702,
      "facing": 9703,
      "privi": 9704,
      "dream": 9705,
      "chang": 9706,
      "hauser": 9707,
      "fear": 9708,
      "06": 9709,
      "compens": 9710,
      "match": 9711,
      "obviously": 9712,
      "spat": 9713,
      "vermeiden": 9714,
      "trek": 9715,
      "islands": 9716,
      "co2": 9717,
      "maschine": 9718,
      "weight": 9719,
      "llo": 9720,
      "erfullt": 9721,
      "ergreifen": 9722,
      "verbreit": 9723,
      "wahrungs": 9724,
      "korea": 9725,
      "sized": 9726,
      "dish": 9727,
      "samtliche": 9728,
      "astr": 9729,
      "cuisine": 9730,
      "theat": 9731,
      "informieren": 9732,
      "gegenwartig": 9733,
      "southern": 9734,
      "unbe": 9735,
      "geandert": 9736,
      "ologischen": 9737,
      "stal": 9738,
      "accur": 9739,
      "vernunft": 9740,
      "bure": 9741,
      "wettbewerbsfahigkeit": 9742,
      "followed": 9743,
      "combat": 9744,
      "items": 9745,
      "yester": 9746,
      "saint": 9747,
      "ambien": 9748,
      "compat": 9749,
      "fat": 9750,
      "coordination": 9751,
      "umgesetzt": 9752,
      "teilweise": 9753,
      "lastung": 9754,
      "mountains": 9755,
      "hill": 9756,
      "elimin": 9757,
      "festgelegt": 9758,
      "palace": 9759,
      "closely": 9760,
      "fortschritt": 9761,
      "immobilien": 9762,
      "poly": 9763,
      "jederzeit": 9764,
      "sauber": 9765,
      "except": 9766,
      "haften": 9767,
      "seh": 9768,
      "beseit": 9769,
      "lizenz": 9770,
      "charter": 9771,
      "database": 9772,
      "obst": 9773,
      "iron": 9774,
      "saving": 9775,
      "machines": 9776,
      "toler": 9777,
      "representative": 9778,
      "gegenseit": 9779,
      "wohnung": 9780,
      "aqu": 9781,
      "ros": 9782,
      "problemen": 9783,
      "intelle": 9784,
      "kran": 9785,
      "thinking": 9786,
      "explor": 9787,
      "nachste": 9788,
      "geschehen": 9789,
      "evi": 9790,
      "ifizierung": 9791,
      "idet": 9792,
      "permanent": 9793,
      "unterkategorien": 9794,
      "ida": 9795,
      "competitiveness": 9796,
      "railway": 9797,
      "chamber": 9798,
      "considerable": 9799,
      "geraten": 9800,
      "qualitats": 9801,
      "sonnen": 9802,
      "drogen": 9803,
      "regelungen": 9804,
      "contr": 9805,
      "gewinnen": 9806,
      "verursach": 9807,
      "bureau": 9808,
      "itate": 9809,
      "names": 9810,
      "universal": 9811,
      "fif": 9812,
      "tisch": 9813,
      "steuern": 9814,
      "beitritt": 9815,
      "owner": 9816,
      "ata": 9817,
      "kunde": 9818,
      "aded": 9819,
      "greece": 9820,
      "financing": 9821,
      "videos": 9822,
      "description": 9823,
      "staatlichen": 9824,
      "berge": 9825,
      "magn": 9826,
      "average": 9827,
      "owned": 9828,
      "cos": 9829,
      "zuvor": 9830,
      "paint": 9831,
      "gin": 9832,
      "delay": 9833,
      "geln": 9834,
      "personlich": 9835,
      "entit": 9836,
      "heiz": 9837,
      "feier": 9838,
      "iste": 9839,
      "executive": 9840,
      "schad": 9841,
      "cool": 9842,
      "richtet": 9843,
      "eisen": 9844,
      "presence": 9845,
      "absatz": 9846,
      "amente": 9847,
      "bras": 9848,
      "jeweils": 9849,
      "barr": 9850,
      "factory": 9851,
      "partnerschaft": 9852,
      "story": 9853,
      "brussels": 9854,
      "wait": 9855,
      "weak": 9856,
      "webseite": 9857,
      "flachen": 9858,
      "exter": 9859,
      "ais": 9860,
      "hosp": 9861,
      "ausgewo": 9862,
      "adoption": 9863,
      "sonn": 9864,
      "gerat": 9865,
      "abgeordnete": 9866,
      "bach": 9867,
      "illeg": 9868,
      "armen": 9869,
      "sorgfalt": 9870,
      "leng": 9871,
      "andre": 9872,
      "kuste": 9873,
      "bound": 9874,
      "gnis": 9875,
      "slow": 9876,
      "cab": 9877,
      "misch": 9878,
      "platform": 9879,
      "isierten": 9880,
      "dritte": 9881,
      "belong": 9882,
      "mogliche": 9883,
      "3d": 9884,
      "glass": 9885,
      "venue": 9886,
      "ordinary": 9887,
      "tsche": 9888,
      "entwicklungen": 9889,
      "kost": 9890,
      "initial": 9891,
      "beam": 9892,
      "bla": 9893,
      "abwe": 9894,
      "stattfinden": 9895,
      "gency": 9896,
      "alliance": 9897,
      "unit": 9898,
      "drawn": 9899,
      "ael": 9900,
      "einigung": 9901,
      "gave": 9902,
      "gewun": 9903,
      "baby": 9904,
      "moglichst": 9905,
      "gestaltung": 9906,
      "benach": 9907,
      "allgemein": 9908,
      "grant": 9909,
      "architektur": 9910,
      "compli": 9911,
      "arrival": 9912,
      "elegan": 9913,
      "ausgang": 9914,
      "drin": 9915,
      "reden": 9916,
      "zielen": 9917,
      "spielt": 9918,
      "reservation": 9919,
      "politics": 9920,
      "2011": 9921,
      "fleisch": 9922,
      "teams": 9923,
      "ubernachten": 9924,
[...]
